/**
  ******************************************************************************
  * @file    network_data_params.c
  * @author  AST Embedded Analytics Research Platform
  * @date    Mon Sep 23 14:22:07 2024
  * @brief   AI Tool Automatic Code Generator for Embedded NN computing
  ******************************************************************************
  * Copyright (c) 2024 STMicroelectronics.
  * All rights reserved.
  *
  * This software is licensed under terms that can be found in the LICENSE file
  * in the root directory of this software component.
  * If no LICENSE file comes with this software, it is provided AS-IS.
  ******************************************************************************
  */

#include "network_data_params.h"


/**  Activations Section  ****************************************************/
ai_handle g_network_activations_table[1 + 2] = {
  AI_HANDLE_PTR(AI_MAGIC_MARKER),
  AI_HANDLE_PTR(NULL),
  AI_HANDLE_PTR(AI_MAGIC_MARKER),
};




/**  Weights Section  ********************************************************/
AI_ALIGNED(32)
const ai_u64 s_network_weights_array_u64[39985] = {
  0xcf452841567f32f7U, 0xf3eb71e1cd3bef4U, 0xa0bff3be2db2d3e4U, 0xc3a972c3e1e73013U,
  0x451f3963acb7dd5cU, 0xbf033a2f81665dc9U, 0x3b55ec91f9bc085cU, 0x56a8b2f0666259cfU,
  0xbc95c74700852d7fU, 0xe5289483b21b3beeU, 0xbb164b45c214a433U, 0x334d6d60b65fbbf1U,
  0xe95f606422beabc8U, 0xf025efda811391acU, 0xb5b5bf985d0f785U, 0x10b0eac7f81ce73dU,
  0xd2af02f347607f42U, 0x125f2b941044a481U, 0x206ecd3b379d2cc9U, 0xfc043c3efd9c14bbU,
  0x3645210313583641U, 0xf7923fc15906af81U, 0xf4cbec9061083bafU, 0xd4b80a1b4eca3811U,
  0xdce70064042f0abbU, 0xda487213adc3c235U, 0x5c4b7fb41b82e8ebU, 0xa8dfdbe20fdc014aU,
  0xd1a29ca3bb04a311U, 0x7f6e1741ccce2216U, 0xe809e5d71bf5626bU, 0xa7ebff12aeae2ad5U,
  0x989ed9db23ee829eU, 0xded77f3e643b3811U, 0x8a326e0dbae92b3U, 0x63c7bd6c5a170b66U,
  0xd77fd85fdf04d239U, 0xedf3aa7fbe5f9d25U, 0x377f40e6aecce91aU, 0xda3e3543f4819bbfU,
  0xaa6a145c65412da1U, 0x5b007f0029d8d382U, 0xfe55d2ee24dad8d1U, 0x2371cc3c793d45dU,
  0x7b43b40e405f2e2U, 0xae2028814825b449U, 0x529d221eed11729U, 0xb21de6f3f9af18dcU,
  0xdc92fd43061c7f5aU, 0xab4224ebcb1f4ea0U, 0x7fc71e3a56b39948U, 0x8f9e4076e3e73449U,
  0x45bf8783eccdff97U, 0x1cc843fc7257ec32U, 0xb2fc15323bd2033dU, 0xbbc8d1cc11125722U,
  0xdf10dffdced1e0cbU, 0x2f9eb3e3057f3c2cU, 0x1956416642db6230U, 0x7fbe6bad87408ad2U,
  0xf525c9193dd2c19dU, 0xcfc8eb115214cff2U, 0xb5f7e47f6541a0ceU, 0x18464704d919b0e7U,
  0xa734fb53667f99c8U, 0xc31b2352b7883a25U, 0x63106ecf09c0eb91U, 0x86f0284c23a89a1cU,
  0x7d040e120a78199U, 0xd3cd33383b3d93e3U, 0x1e387236dd32431eU, 0x5df450811fcbd322U,
  0xd5a4a0a0b2fadb66U, 0xff7176186566ea97U, 0x59dcf0588fdd0408U, 0x9c06d815e4506f24U,
  0xb3475edf81b08cf8U, 0x41c3292b6d370f74U, 0x231d21d105301442U, 0x4a45471f7c4f81c0U,
  0x2fc2d64faa4dc52bU, 0x2569257b7fb25337U, 0x9de7a00d031da0d1U, 0x5923b50ba7f2accaU,
  0x6729c636b842eadbU, 0x77edcbed2ee6a500U, 0xd138ccfb8903412aU, 0xaf38e09eb00f7f42U,
  0x5cb64271be923506U, 0x12915baaaff152afU, 0x81f55538fcc51b3dU, 0xf7924eeb100d0643U,
  0x916e52af37fef428U, 0xb6b35f407f8a4b35U, 0x44e30a57cabcfaabU, 0xf3fbf17f1ef55a2aU,
  0xafedf2ecfdfdb810U, 0x202500a8da15c0aaU, 0x3ae2e5d2baf4797fU, 0x17f9aae945c1c2aaU,
  0x370514201db6da48U, 0x9ecc36eac527b73cU, 0x3f329e2062df10e1U, 0x3caac87fc8d355f5U,
  0x99ddb2ab1659de7U, 0x83ebce134e07207fU, 0xb9001203cc3b4bbeU, 0x2a332016cd45a3fbU,
  0x1876fffffd42U, 0xfffff7170000032aU, 0xffffe743000001b5U, 0x767fffffb71U,
  0x233a000039f3U, 0x36500000660U, 0xfffffc0cfffffea7U, 0x37b00000e44U,
  0xbef0000072aU, 0x7ef000000faU, 0xfffff686fffffa13U, 0xffffc286fffff577U,
  0xda3fffffd9fU, 0x1268000016c0U, 0x47400000469U, 0x90800000262U,
  0x12e726f007ed19d8U, 0x2c11deea1150def0U, 0xffff81d07f219c8U, 0xef3dcc3050924d7U,
  0xdfdf1b02f336e832U, 0x1ad0eb1cf7bbc8adU, 0xce10eb4240e2018U, 0xfd29ce3d33faf24bU,
  0xea0ce3f4dc0d041aU, 0x2dd6c421e2e0e8dfU, 0xdae61be020eaf11aU, 0xf3f10a1ee60dd82fU,
  0xdff2f510383d00f1U, 0xca2b4fdde1418f8U, 0xedec00051727eb24U, 0xd72ee3ff0f0a4b0dU,
  0x35fbece30e4cf20cU, 0xef189b53d6093e3dU, 0xddce0a1c2625404dU, 0xdcfb3d1d171fe53fU,
  0x2bdffee9b1b50518U, 0xd6fb81131610c810U, 0xffd0cdfdd34ee6f0U, 0x1413300bcf05f4f6U,
  0xf2030418134623e7U, 0x229214140ad1e704U, 0xe5e328fb44081900U, 0x214e710df0cf90bU,
  0x131ecaf1fb2708cdU, 0xd8cb9f5af4e6ef04U, 0xf3cf0d2c14f4ec09U, 0xf11913b9e50dc7c2U,
  0x11dc1bc4c6bedcd7U, 0xeebc206fefa23fcU, 0xfd1ece0ae803251cU, 0x12f40ed3eeeb04c3U,
  0xf2ef12e5ec11e0f2U, 0xf8f71e3df6c607cfU, 0xf3eb0df11726f9e3U, 0x27f20a0618f52f20U,
  0x1009f3e214fcebf7U, 0x31461f06c104ebU, 0xf80c2b0220fcfffaU, 0x1e090f1c09f7242aU,
  0xfa12fde60a2c0913U, 0x36175428f1eff414U, 0xe8ec0bf3faf51515U, 0x2c0bf201222d3a10U,
  0x10fdf5f20aefe1f1U, 0x441ae3111c0ed0feU, 0x10f618092207f20dU, 0x24c601f4e30a0907U,
  0xebcfd50901e5e026U, 0x4306c3defd26b52bU, 0xd3fc323208f5d2f3U, 0x38b120cfdd7023dU,
  0x3e7e0050b17fbf2U, 0xfdf7d51905328107U, 0xf50d1f13fdc4c50cU, 0xe4a2250104feea23U,
  0xeaf50f18f7f101d7U, 0xd6ed03f91422fb19U, 0x24fc0a25e5dd17e9U, 0xb0de8ee0811dad7U,
  0xded80b2f05df19efU, 0xf7ddccc0314fd3f4U, 0xebe91d22c88df2c8U, 0xcc11dbffece5e3d8U,
  0xe0d7f7231fdc3aeaU, 0x2de307d42e2bec17U, 0x160c2027f5be1efcU, 0xd5fdcf04f6e8e7d9U,
  0x2ffff9e6f4c3fdd7U, 0xddf9b8d6d3b2fafcU, 0x12e9f2a5eae6f3ffU, 0x1ebf15e40e14e8b2U,
  0xfb10e5212615f4fbU, 0xfbc8c7f916d0b3fcU, 0xebd2f1eaf3df042bU, 0x1702d8e70cf7d1f4U,
  0xfc18fe06112bfff6U, 0x13cdd3fcebf9f805U, 0xeb230a3f19eb0d25U, 0x21f0559b0a0729edU,
  0xf83ae5e713ede60dU, 0xe3eedc2df1c6060cU, 0x2d3d1f5fd1b2633U, 0xd8ecf4cbc72703cfU,
  0x2f823e3dc0aecdcU, 0x2e0d2e4f6ffe518U, 0x1715c7e5da300afdU, 0x1e1215a1f31cc7b5U,
  0xf1ec33f0fd200a23U, 0xeed2ea000cfccce0U, 0x19fbf527ec13fd20U, 0xce12eb3d9330f03U,
  0x3bf9270e170e2cf9U, 0xd207d215e7e32314U, 0xe8fcda1f1e24052dU, 0xe1e62bf3de16d3f0U,
  0x3fb16c7ee18dfdbU, 0xede1c6dee605cf19U, 0x1a14be0cdf1ff9edU, 0x80e21f9010ffaeaU,
  0x1effef63107f72dU, 0xf7dfef17e7c081e1U, 0x1f16d7fc21f8fb09U, 0xb2b025fcfa19f9ebU,
  0xd1f30d01231903fdU, 0xfee7eee526ffedfdU, 0xf4230707182c1d2cU, 0xece2dbf7f2f367f3U,
  0xf100e514db140732U, 0x1d05d81012cd2730U, 0xec040104055c1652U, 0x10a3715e4151102U,
  0x8ece509f70e0ff2U, 0x2fcc4260a0bf80fU, 0xf815ebfe13410b12U, 0x16081202fefd1bb7U,
  0xde0801ef3734251eU, 0x16e8af0d30f00106U, 0xed23251ff33b2443U, 0xf61923ec1d0f3be5U,
  0xfc07e50907fbc7d7U, 0x2f594000df6bf1eU, 0xfa14ff06d64bf328U, 0x110a4fe2fdfa22e5U,
  0xed3014e3f318e60cU, 0x290c922702b5ef19U, 0xffedf20409430237U, 0x5052cf3eaec36f8U,
  0xfbed1dd5ccf2d8e3U, 0xeee581f2fe132d3aU, 0xec0ef241d01ede31U, 0xfeec4a0fdcf2c0c8U,
  0xbc0505ef10f6f7ddU, 0xe9d8ace7fadb4b19U, 0xee9f5170ce30feaU, 0xd5fbfbe3f9d9e6fcU,
  0xe81707f8e6efd7e9U, 0xfd8a2c9f611540dU, 0xfcfc0fff06cae804U, 0xe6e9101a090501f4U,
  0x1bfbe7f8e4db08fdU, 0x29e236fff8233c28U, 0xef2534fe100411fdU, 0x3015f7f80d15f011U,
  0x11eedcfbe1e5fe01U, 0x2bde20f6fdfc0ee4U, 0x9fc0be8fbd8dd01U, 0xf41312edd810eb01U,
  0x33110d1d0cfeff05U, 0x1e1a0aee1018fe13U, 0xf8f311f405fa09ffU, 0xdec040ce9fc1ff9U,
  0xed15e70d01dd000aU, 0x40cbe9ed1c291110U, 0xe4121d0c0bd30effU, 0x1bcd0a22dc09cf2eU,
  0xcae8d9f101df0e17U, 0x490605e3e929d104U, 0xfd022df30381e0f9U, 0xdeee1c12d802b019U,
  0xf60deb06f9f3051bU, 0x2e0309bcf9eff72eU, 0xe8171ce41ff30b09U, 0xf1110e1deee6f728U,
  0xcc0e132014f51aedU, 0x21bad001ea3e1cf5U, 0x1218df2c07e4f3caU, 0xa18fc1900f3e3fbU,
  0xaef9102debeb3011U, 0xdedbbddfd4113dcU, 0xa0be614f99ff2b6U, 0xd220f61011e7e1f9U,
  0xcd01f7120eee1f17U, 0x1dfcf1e008201b0cU, 0xfa1811fffbaceedaU, 0x61505e0ff0cea0fU,
  0x2417f201030b070fU, 0x2f14cbf703f71b13U, 0x2110c0c1cf5eb17U, 0xf1f40ef30ddf16e9U,
  0xdf910f50e1708edU, 0xf501d5000ff10226U, 0xf011030cea090907U, 0xea0a0ae90cfdf1ebU,
  0xf203f1f4f70506f8U, 0xfe0afbe00f000e06U, 0x8ecf619f9ecfc10U, 0xe417eff80afff315U,
  0x1bf30d1804050e06U, 0x2242e30f17fffaf1U, 0x7fe21100b1b1000U, 0x10dd05020fe6260eU,
  0x26e70c00f80bf4feU, 0x730e0e600f2d408U, 0xed0bfa1dfd3cffffU, 0x15f5180d23051308U,
  0x302f60311030802U, 0xe8fdf70a0bf9f303U, 0xf0f40effff08022aU, 0xfbea0604fdee19fbU,
  0x1f1fbe6120ed6eeU, 0x191f81fefada1814U, 0xe6eaf009f914f6faU, 0xfaed1df400fcff1fU,
  0x120df4e70df3dae3U, 0xf1199fb14f0d2f6U, 0xf30afff8dff8edf8U, 0x18f811ff16e6d40fU,
  0xbeb09fef5ecd4e0U, 0x21de0e506e4d00dU, 0x3e70ef3ea07fc0fU, 0x6fe0905080910fdU,
  0x39e4f2dbf100bd17U, 0x1311029c21102d14U, 0xe2df0b44f008f625U, 0x5ee22dae22301d5U,
  0x9f7e31d2517122dU, 0xedd4e0513fe0ad3U, 0xebfae70cf447011aU, 0xefee03f91c37fdf1U,
  0xe04e4e9e80fe322U, 0xae40b2a0c0dc107U, 0xe60a003d071ffc22U, 0x1bf73009da0c26d1U,
  0xd1fb073733ff21e7U, 0xf9e22702360e99d5U, 0x51d2107160d373bU, 0xc1e04be0f255cdbU,
  0x4341fffb0332e033U, 0x12190127efe2fb18U, 0xe0f2f60ecd34f47fU, 0xf0de6cd2c7fef7ffU,
  0x1132fdf01e20d5ddU, 0xa01ed4c17d5c906U, 0x8fae2effb45370dU, 0xf2f23abbd5f30cb2U,
  0xf8370b001e15111aU, 0xe7c422321619a8d6U, 0xf8fefe31e606006cU, 0xe7221414fd1ce91bU,
  0xec3a0808e9e80ee5U, 0x32dded090f05f511U, 0xf20e0b56db2eec3fU, 0xd5e11dfeea1bf0f1U,
  0xd816f6e3f601f8fcU, 0xddb5624151cecU, 0xeb1c090d31092905U, 0xccfb1714fdfb01c5U,
  0x12140ae2061ad907U, 0xf031f025fdeb3906U, 0xe8f6f221052ff60fU, 0xf7fd191ce80ddd0fU,
  0xdbedf02507effff4U, 0xfbeff1f804dd2b00U, 0xe8f91af513101b0fU, 0xf900f1ddf01bfdeeU,
  0x814fae3d9ec04ffU, 0x1110ed3525f0d2edU, 0xfeec0cf6017f1bfbU, 0x13fbef2307f3ebe8U,
  0x3014e4f4ebd6eee8U, 0xd73bcd38ef040eeeU, 0xe1905101131171cU, 0xeaf01aed1405f6c9U,
  0x6fe15062a07170fU, 0xd3f1fff80bfe0efcU, 0xef5edf21850fd1cU, 0x171405bce2000cf1U,
  0xfc160af215090bd4U, 0x1b03f64412e8edf8U, 0x1040609e4542326U, 0x250a11020b130cd3U,
  0x2d0c08dff50712f7U, 0xee14d02c01043911U, 0xf4060d1ceb251110U, 0x40930060012f2ddU,
  0x1c12e90211fbea10U, 0xfa1df41705cf20e5U, 0xf60b09091324edf4U, 0x11e6f104f70209d4U,
  0x263317f10b0b1402U, 0xe414f92211f7cdf0U, 0x50d0831fc4afeffU, 0x20fd3406f6180ef7U,
  0xef0900071afb0df6U, 0x210d3226e3d9e308U, 0xeee4fef91021e915U, 0xe51b03e8eef4481bU,
  0x48ee14ed1201eefcU, 0x1b3611ea0505f40bU, 0xe7f5e70e0538f8f1U, 0xe7061bdbdeec4407U,
  0xf311020efa2810f8U, 0xfe01167f0af40df6U, 0x11f82108111920f6U, 0xf9e1e8e30a0efbecU,
  0x2106fff4f70bffd1U, 0x1afd1b251ed81602U, 0xfd01f3fcf60ffcf2U, 0xf523f8bde7ef2ec6U,
  0x40ed09e709ecefdaU, 0xec19f2d8f5cde101U, 0xf905f700f029dcedU, 0xe2e6fca6eae339b4U,
  0xeff1903ef01fbc1U, 0xe529f65defbdd7daU, 0xe6fe1b09f31c30e5U, 0xfde5dbc5010409c4U,
  0x6e6f30e0f060c30U, 0x2a011329160cfb02U, 0xf9ecff1ffb21f7faU, 0x1614271bfe060f0dU,
  0x22f501f61716eb09U, 0x240e17d619f5c804U, 0x11f6e40de909e7faU, 0xe10727240fdfea10U,
  0xf01f3e7f11efcfaU, 0x171b134f07e4ef0cU, 0xd092019fb201befU, 0xf11dfaf80204eaU,
  0x161be9c2f209fcdeU, 0x28df25fd36ae22e9U, 0x4e70bc707bef32fU, 0xf822f4f6f90cf80cU,
  0x5f9e6faed05f3f7U, 0x15df32b80bec0f0aU, 0xec0afcf91cc5ae1bU, 0xf90cc003d90fc40eU,
  0x9debd5d5ff10def1U, 0xea0fbd117e0bb14U, 0x1f0d0ee34d3cf0eU, 0xb7acfffb0aecef2eU,
  0x3f600140209fc0dU, 0x4de7efe7eb38ed1bU, 0x1c1030092693db2fU, 0xf71b0f361cd31616U,
  0xef1eb9fa062f0433U, 0x23bdb5f50807e7f0U, 0x1bf10a1336f9f506U, 0xe9a82a45f5c0dc0eU,
  0xe418c5feea07f12eU, 0x2cbdbfd8fb05271fU, 0xa21f5ef40c1eefaU, 0xb89f3729dbc2d900U,
  0xc9e4efcc1e031044U, 0x7f17c9d0f61925eaU, 0xf110f605fbca3939U, 0x32686a0d00d7204fU,
  0xf11cf4e4e8f22a58U, 0x621a17d4f20510f1U, 0xd000e1f7e8f43502U, 0x184e510f3ad3edf9U,
  0x715f6ef04dd4612U, 0x50d81905231cbb0aU, 0xd8010a0f07eef60eU, 0x36521f313802fde7U,
  0xcd121900185005f2U, 0xc80dd6272ff1011eU, 0xb143412ece20f57U, 0x1e1ce006410b1538U,
  0x2f51dd9e119f5baU, 0xd425a0f6edd97f18U, 0x4070018beb7f93bU, 0xffe7f2e72a05cbf9U,
  0x290e06e50404b7f3U, 0xbc36f2d000ee1c0dU, 0x1efd1e21e305e8faU, 0x2607ec02f408e51bU,
  0xeff9ec08d10b14efU, 0xeccf07ebe2f33444U, 0x1cdffc10c4e5dc3bU, 0x60f0a0eb116e331U,
  0xf8200af5e8f00ee5U, 0xdcc00c0bfe08edffU, 0x251bf90708f9e0ecU, 0xd5f10eeac51dc412U,
  0xe3ecfc1c0fd01d16U, 0xd7f41903e812acfbU, 0x181c060ce4f206a8U, 0xc71cf0d1b11be4f1U,
  0xcb0df9ebdbc844f3U, 0x9e25ce3df1f1af8U, 0x261205dc07d5183dU, 0xca3b16e406011af4U,
  0xb07cef1d3be510eU, 0xef93b0db41eadb7U, 0x2925dbe21ce3f501U, 0xd54534ebd501da15U,
  0xe801d32102da2a38U, 0x11c539f3d44a310bU, 0xfb2b101404e2ec25U, 0xdc2814fee922dd06U,
  0x1f12130ff614f7f3U, 0x191d0c0c18040b1dU, 0x2230ce70d160027U, 0x1fef15fefbf50e02U,
  0x90503ecf20d0809U, 0x623e3dfe7dd0c20U, 0xf00ea0215edda06U, 0xf1081c0b01f90813U,
  0xe413e4f6ef2e0a1eU, 0xe70af3f9f90cb909U, 0xf001fb1515f9f921U, 0xee191905f9f00ff6U,
  0xfd1608f301f1fc11U, 0xfcf4eef7171d09U, 0x1412fa09f8d90610U, 0xe4cf261003f5be23U,
  0xf400ee03d1f2ff02U, 0x2ff7b9e1e32fc716U, 0xed08e516ef81f618U, 0xe4061911e5e7b31cU,
  0xec02f5f5f6f5e4f9U, 0x1ef4e1ac1815d924U, 0x610050bfbc0e62fU, 0xe7131af418eef404U,
  0xee1211fcd611eaU, 0x35d311bc0f150c2eU, 0x706011dfde1f5f4U, 0x1f0bf7f52400d52dU,
  0xd7fef50cf3ea0af2U, 0xfcf120c50223d01cU, 0x5fddf20f289ea1fU, 0xed2fd1ee1500db30U,
  0xd317f20a17131726U, 0x4df06f80013d61eU, 0xde7ed12eab21a3bU, 0x6250e0d13fff135U,
  0xf3f7f50b023a180fU, 0xe9f9ec05e5f85824U, 0xf5e0e207e8e4ed0cU, 0xfc0ef910f9f9f902U,
  0xe9ede1f9150e0ee7U, 0x3c0dc73dac99fe7U, 0xd9e70defd6243c19U, 0xfa11d51c16110203U,
  0x1a0928f6cad5d7fbU, 0xfde8042112bc2709U, 0x1ef6c3010c58fff8U, 0x48161109d20616ddU,
  0x9ff210518fcf81cU, 0xf805d4f5ccc6250dU, 0xdbeed1fee109e315U, 0x5031b05da19ed0dU,
  0xf05eaf4fb181b06U, 0xdcd1f16802b6c8e6U, 0x5dbf3ee0738310aU, 0xd1fdffe419f73607U,
  0x1ffe260bd0e4dce5U, 0x610023b19e7bff7U, 0xafaf8182d65f7feU, 0x50ef2e0dbb1d5513U,
  0x1b0a170b13e1e8d7U, 0xc0b00fd15dd02caU, 0xf1408dedaf3f00aU, 0xfe01cee5f5f7fde8U,
  0x2426e40d160e2af1U, 0xe2fee94903b8d6eeU, 0xdbe1f734ff2d0033U, 0xe3f5e5d3fe320d81U,
  0x1f0a24e60df205c3U, 0x16f0ee471cf4d90eU, 0xfa05e51c0c78f011U, 0x33d1feedf1f02fa4U,
  0xaef218d6ddd6d7fbU, 0xfab611b3ffa7c1bdU, 0xf50f008cebacf0f4U, 0x1201d6e91afaadd9U,
  0xc8de14a1dfcbfae6U, 0xeed408b5ceb921dcU, 0x619c6aeed88d602U, 0xfe08bcf2f9fc98f3U,
  0xfded19d7d8dbf7f6U, 0xaeb1a9ff7900323U, 0xf90db3d1fe91dd17U, 0xf819f7f3eee5f0dbU,
  0xe0eefacdf8f9bbceU, 0x23e9eadaf4d66d16U, 0xf12619fcce930d1dU, 0x1ebcee71008a0e4U,
  0xe9f4f6e4f7d0d4c9U, 0xfe90f981ef1521bU, 0xfd142eeddabad936U, 0xe6e5cdf9f808cff8U,
  0xf1f108f1fed4c7d8U, 0x27f8feb32306283cU, 0x142638190a9dfd2bU, 0xf8fadded1a19dae2U,
  0x2d1d2a272628320dU, 0x1513e32e2a677f3cU, 0xff051c323211f834U, 0x13ca371f040bfd20U,
  0x82c1133fcff2502U, 0xef01f11c13324534U, 0x25301d3d17251418U, 0xded9012f0e18f621U,
  0x32a051b00f411ebU, 0xfc08f1de14562e24U, 0x23c38221a0ade0eU, 0xeddeeb1afe031a17U,
  0xeaf912ee0edb1fe6U, 0xef5dd1e03e52adcU, 0x21edfef8ea372604U, 0xf331e819321d0f0bU,
  0x302db4b07f6240eU, 0x21f9f421162b28d4U, 0x141660f9006917ecU, 0x72305020b1bd9f3U,
  0xe8bae3f1ecca1235U, 0x421635f60d1504d3U, 0xcb0a13e3ee1e10c6U, 0x120e03e6f52cc809U,
  0xe7fa18ef14ebd1f6U, 0xce0acb1902e67fe0U, 0xddaee1cd3012720U, 0xf4ed040118eee3fcU,
  0xdd1af838040a1f0dU, 0x192c111b2c43d2fbU, 0xf72a52fa055ff7eeU, 0xe0feea49e3041d10U,
  0xe0d2e433e9de22feU, 0x305412371f310f02U, 0x4173f1a32510eb5U, 0xde0813dc104b144eU,
  0xe8ec1597fc07cad3U, 0x5d1a4f9dbc9f9dbU, 0xfdd5c2e703eb18d1U, 0xd11229f703ef24d5U,
  0xdc1bddfce8ffdcecU, 0xbfb96ddf20985ffU, 0x10fa01d51afde2e0U, 0xc50c093aeabcdcf0U,
  0x2d29ee49da002321U, 0x193cc4000e448102U, 0x192246f21131c5bdU, 0xc418301ecade100eU,
  0xfdf6f7b5b9040b4dU, 0xd00548f4ffa438fbU, 0xedd7f0d2c407f429U, 0x21023552ce1e034bU,
  0xe41509180dcf030cU, 0xdef27205f7f3e6cdU, 0xfea2512d0211a24U, 0xfa1018edd930c4f8U,
  0xdfcb160e25fd18c8U, 0xf41c3d071712cafbU, 0x11f03535f8e530ceU, 0xff42acb00420d1feU,
  0x1cfa10e5d2e7f3e1U, 0x1f1039e2e90e324fU, 0xe5fa110cfff5ed03U, 0x15db0a17f40953e4U,
  0x2d23e9fafbdd1624U, 0xce0c31dce0bce5f0U, 0xb17d2e10e0df6f5U, 0x27e03325fbefea11U,
  0xfafdf4171fe93525U, 0xe80830e4e01baec5U, 0xf30a0d15ef1a0df2U, 0x161f2600db00d1f3U,
  0xe9f2eafbfdfcf4e0U, 0xdfe4ff1e12170808U, 0x6dbf3fcfe170408U, 0xe1f4d8ffc7eb53f1U,
  0xa01e920f2f72323U, 0xef3bed1ee9ff131bU, 0xc12ebfe24022421U, 0xd7e5fe1303fd2a02U,
  0x32ec26dfe3ed1531U, 0x443719f31781f615U, 0xee0a14d0fd3c13c5U, 0x28fe351a0f092427U,
  0x1617f3eff1231424U, 0xbdb383fcad22bf7U, 0x230408fe015cf42bU, 0xf90a2b3dbb060c3cU,
  0xf719dae70607f92fU, 0xf4bb5803b8dd60cbU, 0x4ebbafe05a7f90bU, 0xe6263d2bbdedbf21U,
  0x141e11d20e18ed25U, 0xfe534e506da20f8U, 0x2712cffef7170849U, 0xdd073a0ed8fe032bU,
  0xf1603f9e4eb2927U, 0xf0b0431e1c23e117U, 0x16ff1006020d2544U, 0xebd133fff101b4fdU,
  0xebe60ef0d6c50300U, 0xba232d8fe1533edU, 0xe2e5de150e81f403U, 0xed1719e2f4fd9ffbU,
  0xfa12f8fcf7ef2819U, 0xdc203ce1717c0eaU, 0xe01aeb0cecd6e636U, 0xd1e3200ccfed0620U,
  0xef1120ce4e0fe42U, 0x1ff428f9f5132533U, 0xf80de0f8f60f1f1dU, 0x2cda0a1ff809f6e9U,
  0xff08d5dbd4dc2617U, 0x4fe3fe3c40add0eU, 0xfd00e5eecbb2d2f7U, 0xdc17170eb4ecb9feU,
  0x17f0ecfe0a071102U, 0x1acf21d0fc16da14U, 0x181409f70efc07f4U, 0xec11160af2f826f1U,
  0xd7041405f6c40fc9U, 0xf5ca00bdf915132cU, 0x8f3eb1ce3caf9e1U, 0xf50506eb0ef3e6c1U,
  0x5ef0bf9fbac00c3U, 0xf7fb04d716201e24U, 0x150cfc23e99c02cbU, 0xe700f2f70df6c981U,
  0xe502fb02cffdd1U, 0xf8f304e70815f215U, 0x100f16fe06910ec3U, 0xe5ecd80207f9ddcaU,
  0xc7ea0ff3f4ebf6fbU, 0xfccde8cc02eef20fU, 0x11f409ffcbe203e5U, 0x1126f11b081bf9dfU,
  0xe9fa07ff01fa1004U, 0xcde3f7d3100ad007U, 0x1ef1209c8c411d1U, 0x61acc1c0616cedcU,
  0xe4f71a150f090c01U, 0xdffffe0c150fee06U, 0x7f52c07ead914daU, 0xebfeab010f1fe7d9U,
  0xfcb12f6fdfcdd05U, 0xeaecd3fd0a009c22U, 0x6d80507d80b02f4U, 0x171a0ae91bfee606U,
  0x26d1050a0bfe09efU, 0xe6edeafffb1689d8U, 0xee206e7ea1107d2U, 0x10f5dffd0702dd03U,
  0x14eef0fc08fd0c15U, 0xc712ec01f304a4d7U, 0xbff0ff2ea0a12ddU, 0x3f9dd011e09cf09U,
  0x170709e1e1f5ee0fU, 0xe5201ffbf802ea15U, 0xcede3edf3f50affU, 0xf31705ef0ffeffe1U,
  0x610031dfdff04e3U, 0x30d3401ff03a1f1U, 0x100e0be3fd0c0becU, 0x915e7d6030812f5U,
  0x1c01ec15050300fcU, 0xdc35491705e252efU, 0xedfff9f0f0171efaU, 0x10705f70b10f9faU,
  0x140ffbb6ede9e0efU, 0xd82412dbe3f7cb0cU, 0x904e7f308e004deU, 0xef08fdf016ec1cc1U,
  0xbf5e8f913ee0fdbU, 0xe5280ae302ec81e0U, 0x90adfbf1cedfdd6U, 0x4e8d8c8f9ff15e1U,
  0x1deced150fef1603U, 0xbf3f2b1bf3dacd00U, 0xf7e9fee514f40fdaU, 0x6fadcdaf2050de1U,
  0xbf20bd003e4e8feU, 0xcd1601dff6f2061fU, 0xf01e7f1ecf8e9e7U, 0x10a171a07040aecU,
  0x130ef9e918f6ee02U, 0xca2ef1ee19f9d6f7U, 0xfeece8da1101fdcfU, 0xfcdfe4f211ef30e6U,
  0x11e7e7fd190e1605U, 0xd60d0b2c19ff1f01U, 0x5eb12fa10171defU, 0xfafdf3ed20f615daU,
  0x2410f3d40c0ceae3U, 0xf1ed33f418212635U, 0x160bd0180cee0800U, 0xf5eb0130e80d07ffU,
  0xf603fefff617f4dfU, 0xf2f02ef7f3e8fe19U, 0x121ee10102d010c9U, 0xff40cfb0d13f2f2U,
  0x82f1cf607232800U, 0xf1fd1dea2913fb13U, 0x131d02091f320efdU, 0xea0df503002c1c08U,
  0xf01b04e7fc02e00aU, 0xc9ce4101d003dffeU, 0x20eda0be03d319f2U, 0xee25f4f2f207fc1bU,
  0xd5ebddbdfb03dbf9U, 0xb9d015e0e79be000U, 0xfb0ea881068712b3U, 0xfd28e7d106f9d6f5U,
  0x2e0bfae2f8ec0104U, 0xbded04d2d5b7ade1U, 0x14e7c5b804d105c5U, 0x111ed6f9ef12edf8U,
  0x1210e8e90a0af72fU, 0xded11818edd1ba23U, 0x4e6b9a62419fbf1U, 0x181b03f516f7fff3U,
  0x15e108db06f5e621U, 0xcfcdf9dfcfc7aaffU, 0xede5aa8618dc08e8U, 0x1843f4ed08fe05dbU,
  0x15de10e6fe12fa14U, 0xece2eed1e9c597f6U, 0x1ceacda517ce1004U, 0x1122e8ecf80727e0U,
  0xfd0f04f60c0c19e8U, 0xf312f71900f4e7ebU, 0x80026f4ee18eb13U, 0xfd0fe811fb0f0913U,
  0x1811fef6effef1eaU, 0xc52e1023f2e4530fU, 0xe3f40603002809f8U, 0xff2e1ef0aff05U,
  0xeafaf3ff01ea07U, 0x1b1404defef97f14U, 0xf702f00dd725fefaU, 0x101111e4270dd115U,
  0x2260f08fe021bd5U, 0x2e4091afe1de5ccU, 0xc05fcfc130bf417U, 0xe72ac819f5082b13U,
  0x262af102fb030ef4U, 0xcc292635e31353f0U, 0xf7fbf50d1138ff03U, 0xffec1a0ad9fd13fbU,
  0x26f90506fcf7f531U, 0xf703191df90fddf3U, 0xff03f91c0d20f3baU, 0x8f22cf216ede61aU,
  0x2b0ff3e4f0020ce3U, 0xf5d33929e800f9e1U, 0x7fbe8ca1dfde606U, 0x555d80c0a0834e3U,
  0x351fe506f00afc18U, 0xca081e49d5fc3305U, 0x316eaeb1c2804cdU, 0xea1b0d17f0fd07c3U,
  0x90cfe0301f2f836U, 0xf11428fc02e4c4c6U, 0xea17e4c52032fab2U, 0x161b18eb01f1ffd2U,
  0x1e8ee2e09120eeaU, 0x906c520232305f9U, 0xfaf94903102efbf2U, 0xed08eef6ee1916e1U,
  0x5f00e20110f3f107U, 0x47cbf50fb5a9e6U, 0xe2e716b40026200eU, 0x28e30bf91c0bfdedU,
  0x141809f50f04ff1eU, 0xcbf1f5d203ee07ccU, 0xffeb03fd0875ec2fU, 0x422229f2e90819f2U,
  0xe831fc1fe8fd22f8U, 0xdcd106f70d0e0ae8U, 0x1ae40a13e53be80cU, 0x1ef4170edcebe7e3U,
  0xd702e21400f837cfU, 0x1a17d238f42f2804U, 0xe604411df2d60208U, 0xa7e4e990f414d7bdU,
  0x1de9eeeae3f7d116U, 0xb21d3e111ddc9f5U, 0x11f21d01b061ce9U, 0xce62128020dc93eU,
  0x9f913e6d1d00b00U, 0xf91635dcd8f1dd01U, 0xf90ee7dbd30c07f0U, 0x25250526fa1aab13U,
  0xba1ded1ce7de0a07U, 0xfcb506e1fe0b15feU, 0x18f2d7f40af5ddd2U, 0x422f928dbead308U,
  0xc8fbe4390df73becU, 0x10052e070a3c4929U, 0xfa1a17131581f005U, 0xa812dde10608dfd9U,
  0xf311d10d0a0c1e3cU, 0x33a5bd0a14eb7f65U, 0xefe5f121ec2cfc47U, 0x1424f80fd215ec14U,
  0xe112051303ee3f1aU, 0x1cdec7f532c71a0cU, 0xead8d8effcd90b39U, 0xe7f5e508d5561903U,
  0x81bdcd3eb234bffU, 0x1f9bfe04fee1120dU, 0x9eacd28c4ed0f57U, 0x26fd2deefd3bffceU,
  0xadb0e2a1eedfe02U, 0x17ebacd511e9a9f9U, 0xd300d90bbc02305bU, 0xdd61e4f72805e2U,
  0xdf0e200ef3df1622U, 0xffffbbdc17e8d726U, 0xf11d3efb010f856U, 0x2e72c1c2836fcf8U,
  0xe5dc04d7f6f1151bU, 0x4bdef7d201d6be19U, 0xe5f51646fca61468U, 0x15ec32251d2bd10dU,
  0xfb0819e41e1b17ecU, 0x1bc7d4fd19f7f82eU, 0xdaf0c61ab815224dU, 0xdb043414e708c1feU,
  0x14f4f02506d6f70dU, 0x2c03edf501cc0af3U, 0x26260b0ec9fa396dU, 0x15e03e22010005dfU,
  0xcea28e6ff0b0c2bU, 0x300bdcd60ef833feU, 0x2ad2c9fcfa322613U, 0x13c9fd19ef393c20U,
  0x1105e5f621ce24e5U, 0xe25dff8ffe1a5e0U, 0x2f6fa1f2123d50cU, 0xfafb10f0f5135fdbU,
  0x2207060b042927d8U, 0xfefdf71c2a2dc50bU, 0xece0d934ea17ed0aU, 0xcd1623f0f0de120dU,
  0x17f712251d13eef4U, 0x12fefc2c0ce6fa0bU, 0xef07ee14542828U, 0xae6ffd0241c1ef2U,
  0xeff6e41205000a27U, 0xffd2eb121dfd041dU, 0xf504f6f3225d2310U, 0xfb2309d2e9130e1fU,
  0xf00cf7e5f3dfea1dU, 0x2524c0cceb0bcb2cU, 0x20190f090044fe29U, 0xd9f6f900ec0d2116U,
  0xf714fd15db0a0befU, 0xfc0f06ea27f9811bU, 0x2ddf00fe9701f09U, 0x1f2a4d03fb1ef808U,
  0xc801ff09d6c41cf9U, 0x11faff0e0b081010U, 0xf612ef16eae30af4U, 0xae9ebec15fed90aU,
  0xf021e106fbef130fU, 0x1b07d6d81cf5510cU, 0xfe1f810ff22fcffU, 0xa0f2afceb02fd25U,
  0xe60302fceb081c0bU, 0x350604e907170cecU, 0xdf04db20002b0f2fU, 0x280a0838ff28eb18U,
  0x202e090018cff244U, 0xd94ec2c01b138be7U, 0xe52012101b0416bcU, 0xdff4bee28d322f6U,
  0x270404f2f700e9f6U, 0xfe568d8118fccb07U, 0xe8f408fcddf8ecf7U, 0x153119e645d419d0U,
  0xf7fede17de011dcfU, 0xc2dcaa90decccf0U, 0xe828f3dffed1e0dbU, 0x520f11407f00cccU,
  0x391b10f8f6d0db26U, 0xeb35e8d50c0c12eaU, 0x3001ff4053c0deaU, 0x270e07c544fa1b16U,
  0x370416f2180ca6f2U, 0x1051a299280af4d4U, 0xdbe73cefcf300b2bU, 0xc151be732fd1f34U,
  0x140c12d8fa05ebc7U, 0xbe20c9c8f707e0eeU, 0xf80d18ebd6f60c0cU, 0xef0900f2090202ebU,
  0x24061f09f20c0ed2U, 0xd22b5a40fcf521ebU, 0xf519f7032116efefU, 0xe3ebfcbc0010e91aU,
  0x4ff40906eaf2eaefU, 0xcf391f0603f8e5d4U, 0xeceb4b13db420b32U, 0x11de21002b1ef133U,
  0xf9020defdfdbcedbU, 0xcb1119a903f4e7efU, 0xf5f01cfde93303ffU, 0xfffdf9f9fbffe9fdU,
  0x6fe09d5f0140b26U, 0x120f10da0512141fU, 0x13fde01becf6f7f2U, 0xcf22815110c3520U,
  0xd012ec191b1027fbU, 0x7dff71e010c02fdU, 0x1c1702feffbf19dbU, 0xd90f154405f41410U,
  0xf10fe31f15182d08U, 0xf6e31135eb10baffU, 0xea0305f705a306f2U, 0xd6eb0c2d12f921e7U,
  0x5dc13e5f204ee00U, 0xfddbdad216cabc00U, 0x1ae2d2f6c1e20bc8U, 0x2303e9bafdf9fbccU,
  0xccfd0405010000f4U, 0xddc1dde50ac681dcU, 0x17e2fecfe19c1ad8U, 0xef01c7fd0e0cfad3U,
  0xf60c021b03e923d0U, 0xd0d3f107e4f629ffU, 0xf504f6f8dca100f7U, 0xef0afaf21aeedeb5U,
  0xefff1fdc06fd0012U, 0xddecd1d40ea0def3U, 0x15f1f9d3c6ef07d5U, 0x1eebece819f80604U,
  0xc3dc01fe1414160dU, 0xd3c5e4f1f4a5aaeaU, 0x12fd08b6dfbc0dd7U, 0xeef1d0f6fd1bededU,
  0xe80b10f0010f12ecU, 0xd006e310dfdc4115U, 0xf6f311dbfeea2003U, 0xfbf0f3fc0708e0e2U,
  0x13edf8fd14f81a1eU, 0x17da1505fbafe9U, 0xefb24cafdfd2bc6U, 0x52a0c310e36e0f9U,
  0x816f5f3dec6f819U, 0xd6df1abdf801d9b8U, 0xf401f1d6ea52e3d4U, 0x1b2df52cfff5e20eU,
  0xf30ffb270cf40ee6U, 0x110ce9eeef1c18deU, 0x17243aff10ff05d5U, 0xee0bcde0dcf60202U,
  0xef0def2c0bf60907U, 0x2f04e226121cdf17U, 0xfcfc2a0504570beeU, 0xfcfcf006ff3b3514U,
  0x15effb17e7cac312U, 0x242dea00f4d0b2ddU, 0xff0c3a81ee1a2da9U, 0x22041a22081dc404U,
  0xed0f01f3ebdd1333U, 0xd9ffe5d0e6fcb2c5U, 0xf2f910c8f84cd5aeU, 0x1e14141efcf8ec07U,
  0xd14f70ee6f3030cU, 0xc712cee9f2f5eaf5U, 0x3f5e7dffc21d7e5U, 0xf41bf40ae3fc0f16U,
  0xe6fadb431c0021efU, 0x11fca34fb401ffeU, 0xdd084417f01f0fecU, 0xfe10f8e2fe29f8d9U,
  0xee207e9f7deee20U, 0x3c3df6faf5100314U, 0xd9f019d4fb0621dcU, 0x1ae2ff3c02110134U,
  0xc2ed022eb24e324U, 0x21807f0f5f0fb0fU, 0xf80dea0e3021dd10U, 0xd2fb17cb03001dffU,
  0x1516001619130af5U, 0xeb22093e1908f207U, 0x1702040ffc1e1cf8U, 0xeb0f00cafa0811f4U,
  0x6f1f9f7e1070721U, 0x1d094bfc0dee45fcU, 0x11ebd302f41df8e4U, 0x22e90c111926f4fbU,
  0xf800121230080012U, 0xe927180203cf8ff0U, 0x180400f03355f0e2U, 0xf1d908df16da5dd3U,
  0x1d09fff4e7e108dfU, 0x1a3a160809d0a8e7U, 0xdded0802edfa29d4U, 0xafd2ee30ef410feU,
  0x4d91de7f3211d0dU, 0xe0eb0f6316cdd802U, 0xddec00fed0000520U, 0xf701e9072b08f5f8U,
  0xf0e0d6f42f120607U, 0x20e1110f79181d3U, 0xff8d3fe1d60f5ffU, 0xcf10fdd913f247c3U,
  0xcccf7c700dad4e6U, 0x1909ebe926a5aaeaU, 0xf7fd0406ebd3ff00U, 0xf8eb0c1009e6000aU,
  0xfb0a19f4092b0cd7U, 0x1d240f340ac5d70cU, 0xe0f8f4fe0e0723e6U, 0x1505fb052903e8d7U,
  0xe9e2e0e8000c1a13U, 0x18e7341c09ae17c6U, 0xe7ddcec0240311efU, 0xfe4ffa19101d6a35U,
  0x2d0d0fe0c9f8cbf9U, 0xec2ef626d88cd0fdU, 0x9f5faf5e62019ffU, 0xe0322bfdda04181cU,
  0x15cdf3f91010d324U, 0xb0de12f1fa88fb3U, 0xdee39b171bf6b5U, 0x293a00f41521e715U,
  0xeac1fd0f30ff18ddU, 0x1504173011f9d5e3U, 0xe8e0e9252629fbfcU, 0xd29c115fe017b36U,
  0x6bfff50ac6fecebfU, 0xd15dda1cf2e69f0aU, 0xe015e33ae5630807U, 0x2cd1cfbd0de221dU,
  0x26e3ea1e121e22f2U, 0x503de58ecff9aecU, 0xf3e5ee13053c16eeU, 0x2cf3d2d8eadf18cbU,
  0xee2021c0e303befU, 0x1623ed39f3ed9bfdU, 0xe8f6f82231fbfdfbU, 0xeafaec2bec0e7f32U,
  0x7b0a0cf2ccdef50aU, 0xe0459e29edf88d03U, 0xe7fafa380539e70bU, 0xf5cc2121b6cf0919U,
  0xeae207f228123037U, 0x13f5ce58f5e4e107U, 0x605e8121d2d03e3U, 0x2616f71c1bd61723U,
  0x6e20e01eaf8ed0aU, 0x401513e420ef2b28U, 0xf60c0316fefbedfeU, 0x2ee600bcf0eb24e2U,
  0xf8cc00ede4fbffe7U, 0xc0405f30b08f72aU, 0xe0f0ec0eef9df2f9U, 0xff040abe09e6e0eaU,
  0x13de1019151316d8U, 0x1421193110031021U, 0xddf60405f7f90504U, 0x701f1d00f1228faU,
  0x2ea15fb0fd101ebU, 0x1b0ff4ea11ecf401U, 0x3de050df4f300c7U, 0x91af5c10c14edd3U,
  0xeedcf9fcdfc1f7c9U, 0xdbf6ede60df2b501U, 0xf8e7db11c48defd0U, 0xf90fc6cf0c04c7b8U,
  0x1adf220b1d1405ceU, 0x1325f23a1df40bffU, 0x2f41307181116feU, 0xbfdefd6071732faU,
  0xe2f903f8ee05f5e8U, 0xf5d4faf00afdb708U, 0x4e20808dc07f6e9U, 0x1dfacc03141df1e2U,
  0xcec8f7def2e3f7f2U, 0xd0f0e6ceededdb06U, 0x1d8f104e381ffcfU, 0xe2ebcaf5f013cb02U,
  0x3171af4202518fbU, 0xafdf22b06e8f40dU, 0x12050029f9050f08U, 0xfdfff60cf50bfe1fU,
  0xe222e70efd071ddaU, 0xd8089c3815e0ef07U, 0xfd031f100be61605U, 0xb8bcfbf0f20bf918U,
  0x230b26fd0b14dee4U, 0xe3f2a9d80cec03e3U, 0x1217f0f600fcd5U, 0xedd7eed5fbf8fe38U,
  0xf0f8e11f11eaefceU, 0x3ed8e0df9f1fa06U, 0xffb061014f6e5e1U, 0xd5cae50de8f707fdU,
  0xf707dbe30af229fdU, 0x23dc032b0bfcaaf9U, 0x9f8fc0e1ae610f0U, 0xd31b391eeacb0e11U,
  0xeeeb11aef201e9faU, 0x39fa1cbf06eec90bU, 0xfd04e9ee240bcaeaU, 0x15231bfddbe0eb15U,
  0xc401e5e7e8f4f30cU, 0x3bfa04e3f0ed81f0U, 0x217fdc213c60beeU, 0xcb170e25ecdd0622U,
  0x22ee0d2123081a0fU, 0x2be72323f405f7fbU, 0xf60a0b2a06dd33f3U, 0x182d06b626291cf6U,
  0xecd332eefe012e8U, 0x44eb45d5fc06171cU, 0xf707163ef5f41a14U, 0x3c3016c71406e81fU,
  0xd6dd190211d33404U, 0x1fe52ae61137d2ffU, 0xe7f81223e0beeb0bU, 0xe54ac6fe021509ebU,
  0xfafae7f2f421121aU, 0xef0bb804f7f3f424U, 0xefedf7180aeafc22U, 0x5f607190df31c0dU,
  0x241802fdd203e71dU, 0xfa11b3e70d10eeffU, 0x7fce70fdaf40122U, 0xcf02114e50b07f6U,
  0x18f526f510ee03d9U, 0xff000ee608f2fe07U, 0xf80e0125fc23f1edU, 0x160a1ddfea06d7d5U,
  0x130007fbed04142bU, 0x21fe810d1ae7fb33U, 0xf2eff215f4fbee36U, 0x15ea3115f2f3f4ffU,
  0xdfd18f1dfcde1deU, 0xfef0eacb1106fb21U, 0xf9f2e523de12f31aU, 0x19f828d8ec15dfb9U,
  0xf9f618040b0d0d07U, 0xd6d55f0deef7e5f1U, 0x1df0ecf1e3f319feU, 0xa14e7f61703f1eaU,
  0xf3f80d0bf7f310deU, 0xef0bb6f01414c4feU, 0x905fd16dffde9fcU, 0xe6fceef307e6d9U,
  0xbee02fd03151111U, 0xf7210002f3bdd8U, 0xf1edf5e0faed241eU, 0xeef5fb1a030c02fdU,
  0xf80efffb0616f905U, 0x19e2211cf3bedffbU, 0xaf8020f0ff00824U, 0x3012109fe11f3feU,
  0x41fde7b7dfd7fc0eU, 0x153f610bd2e9040cU, 0x1f02c0dd0be00de0U, 0xc220e0befe9f9c5U,
  0x2d2d1b20d0bfe83aU, 0xb108dfd8e8e7ffc9U, 0x2317bbfaef40bdc7U, 0xd9f34d0eb8d7beeaU,
  0xbc14fe3901f10cd9U, 0xa4a88d4ce81626f7U, 0x22f235190ecd15b1U, 0xb40e94d7011cc6c7U,
  0x20cff615000c3ee7U, 0xed192f21fc34f617U, 0xd10002dfe6e617fcU, 0xe2705181e021dc7U,
  0x47ebfdc0c6bcd30eU, 0xee32f9a3c281ddd4U, 0xfd9e8d42c01c9U, 0x11095621071cd1f2U,
  0xd012edef21ed2101U, 0x492b723f508bcdaU, 0x1de8f6caf22e07d9U, 0x6e600ff0d0eeff1U,
  0x18fd0e3b151d0ffeU, 0x1815041bff173d25U, 0xeed910e82a1205f9U, 0xfc0010fefc1441faU,
  0x51dd2003c8dd17ffU, 0xf04911eed9d75e08U, 0xda070f2cb7061d13U, 0xf7343111022105eaU,
  0x10f91308def90816U, 0x1ec8e700e0cc14f3U, 0xe91614c017531006U, 0x2c0a0b0a03040fe6U,
  0x1c150b3727f32ceeU, 0xdf12e75601feb0d6U, 0xe1d3e0dd097df4d7U, 0xfbf21d95d61967dbU,
  0x3edffaefe8f90fdcU, 0xf72efc6d14d9d4caU, 0x17e6f9ea155949f2U, 0x20f218b6192818a1U,
  0x1e1007f40fcfdec9U, 0xfed2d752f9fe93ddU, 0x1f09f6fafc2e1e0dU, 0x1113d1dada0a2f9eU,
  0x8fc0d12120f3010U, 0xf922c5db15d8eba5U, 0xdb03f4f00664e5f4U, 0xf00cf1daf31c1be2U,
  0x140d25edff2429f7U, 0xdfe2d7611cdaedb0U, 0x6d2110dde5e36ffU, 0x28e90ed90d49f8daU,
  0xcfe22e3f20e13edU, 0x6b8c336eedfc9bdU, 0xdd9cdebeb230ce1U, 0x2d05fc060c0808e0U,
  0xd0fd093c150af7feU, 0x75ed19d406d1ccdcU, 0xf80a11d2fb4bfa17U, 0x15f13d11001aed29U,
  0xc0ecebe50c120f34U, 0x59b704151381a2faU, 0xe50bed2206323c07U, 0x2a032b1c0d1af41bU,
  0xdaff16e903ee0b0cU, 0x30b1071cfeb9eff2U, 0x16140e08fae22a28U, 0x1a22f232fd041b1fU,
  0x1110efd0f260b1cU, 0xdc09d139de100c01U, 0x101505021e03dcfcU, 0xf091523f2c9fd36U,
  0x118ed140dedfa20U, 0xd3fab7e7ea1a17f1U, 0x1804d705152504beU, 0x11112b0a0cd3fa15U,
  0xcc0b0df505fd080cU, 0xbdf62ce405ffabcdU, 0xf3f80204f2d60fbaU, 0xf10e11ee19eadbefU,
  0x391ce500ff12e004U, 0xc216b034fcc72405U, 0xd11ddf504f4ebe9U, 0x17ec1e06ead9e407U,
  0xf70e15e80411d6fcU, 0xc81087d71ac8cce8U, 0x90ecbc20b0cd5afU, 0x13f00de7f5c0020fU,
  0xbce30ef0fd0afc0aU, 0xd502d6050c8e81fbU, 0xfebf4c7efc01ac8U, 0x70bf3c60308eee8U,
  0x2d090cfe0b03f31fU, 0xcd26c637090920e4U, 0xfe110902fc0a0008U, 0xdf422f701f6070eU,
  0x1de70ee70bebee0fU, 0xcf0cdedf18c2e5f2U, 0xbf6d2e0ec29f9c8U, 0xbdd13ff09cf1d16U,
  0xcce4e80d1b2901feU, 0xe8f4ef2100a318feU, 0xecef01f1f2e103fbU, 0xfdf8dbf725f017fdU,
  0xe2f4080901160fU, 0x13075505fc001127U, 0xf1ef03fa01ea1104U, 0x243715fdfc1bf1fcU,
  0xdf7fff2f20a00f1U, 0x313280fff0e0615U, 0xfaf21118f30aff19U, 0x30f111af90501fcU,
  0x24020a010e08f90aU, 0xf70ad3ef08fa0424U, 0xa05e91e0617fc0eU, 0xedd0b05e8fd0706U,
  0xddf102feebcfeff3U, 0x1eef22d7161af524U, 0x8f51005e881e212U, 0xed11f001e4fab40bU,
  0xf7fdfb12facffcf7U, 0x14eee7d4061d100eU, 0xc0cf30aede5f303U, 0xe6f2f707e5f4c600U,
  0x7fd05f9f2040911U, 0xf5e1c5d2fc0f1a1cU, 0x60fedfb0307dee4U, 0xf2e6feef01fff807U,
  0xd608f7fcfae40d0fU, 0xe1eaf7cc101cc5ffU, 0xfffff9fef79bf0dbU, 0xc813e0fe0ae8d4efU,
  0xeffefafef6e8fcf7U, 0xfbf1f4dc0d1cdcfeU, 0x30df4f305eff9ecU, 0xe50fdb0c03040406U,
  0xf102080406f8051bU, 0x7fcf1e90700071cU, 0xe07fff00bfbfdecU, 0x20503fb0afc14fdU,
  0xf9ebf4eb2e162503U, 0xf4d7141111e3c3daU, 0xf8211c23360b3dfcU, 0x1d19e5c51f330e02U,
  0xb9f5ffef0c0d0e08U, 0xfad1481514b21b14U, 0xee10ffd01fd72d36U, 0xfb42fad01e26e515U,
  0xe9e3f8ce1319e8efU, 0x22e740ec0ad74203U, 0xd6dcff040eb12f33U, 0x424faf123230503U,
  0xd4213131e281d06U, 0xc9e3dc4c01fc05f7U, 0x29272c27332c1b29U, 0xf1e32f23e2213c24U,
  0xc517f1fe0e120610U, 0xdcf7044007fc4ecfU, 0x1d1f11ecffbe0cf6U, 0xdffe160cfb11d10bU,
  0xeae1dbf80708d902U, 0x15fcf4e6ec12cbe5U, 0xdafb18e6fae3e80fU, 0xd2ff03ecf2091307U,
  0x31d070af8090c00U, 0x8d58115daf30adbU, 0xfa011c0a18fee4f0U, 0xf4e8201610c82b27U,
  0xd5f6dbf8e911e50bU, 0x7c7b40af5fa2216U, 0x14ef1ce0039eece1U, 0xe7e31afe0acab902U,
  0xc02fee7eff9d0e5U, 0x4d1add8f30aa9f9U, 0xf2fce311f1b6c8c4U, 0xbbe617e2f7abfffdU,
  0xe68e101916f44650U, 0xe62029f220e21bdfU, 0xdcecceaad21113b8U, 0x12121bc23524080dU,
  0xbeb929ae1dfb210aU, 0x2fe679eb33cc1fdeU, 0xeccee4e7b0d00c1bU, 0x1e5f34e01e461207U,
  0xef1210bbf4f410f2U, 0xe12fcebeb0c1bf4U, 0xf5f508f7fafc1eU, 0xf613f311000af320U,
  0xf084080a0708150aU, 0xe14040ea11dd28f5U, 0xf01defd5df0a1efdU, 0x1ffef18a0f08dc2fU,
  0xbeec04d8f3e7fff6U, 0x14ef7ade1dd33915U, 0xdce23d0819a2165U, 0x3c43f3d7034afa35U,
  0x1319f8eaebfbe8b9U, 0xd7fc2bf5d31b2202U, 0x150a1106ef38d45aU, 0x4fde3f5e4040018U,
  0x100c051e0d24ed17U, 0xe215e0e4f705f203U, 0xe805f7dc1e0d09e8U, 0x18ccd6ddedf207fcU,
  0xe74a090ae60dcffbU, 0x70f18edfaf40ff6U, 0x1e021dee03b4e02dU, 0xf006de3bf0081521U,
  0x304fe519f421d7d8U, 0xd62bd521f5299815U, 0xe93cf31e4123d4f5U, 0xba8df2ffc6da2cf5U,
  0x301a2d2b0d0c4137U, 0xec2501f60c10088fU, 0x21f91deedc542a35U, 0x2134134c0936dc16U,
  0x1a150bf1202dfd1cU, 0x7e01b121db0c3U, 0x15f0041fed343257U, 0x37062218123a0434U,
  0xf11afbfa260f300eU, 0xeb0110fbd3eaecaeU, 0x819d9f3eb221133U, 0xf5f5fa1ae5fc1c1dU,
  0xcdf8f9dccfe6e525U, 0x1a33f1daa8898394U, 0xf2042b8e2000082aU, 0xf0dd0520a3f9c545U,
  0x152cd6cbf81df53dU, 0x151606d3f081f3a8U, 0x1015d5f11d18d71aU, 0xe7c31d18d0fa094aU,
  0xde27ece0ce120a1cU, 0xd0af010f8dc4fddU, 0x1518fed30212e431U, 0xf9ef212ff501f748U,
  0xfe0fd907f8ddfbe6U, 0x1cbd00e0bebfcedfU, 0xd9e8d1d3f6c3f4d5U, 0xcd172518fdd8f1ffU,
  0xedf005f1e8db07fdU, 0x14c6efebf3c5cdd2U, 0xeb03f0db110d15f2U, 0x1e310c1efcededeeU,
  0xc1fcdf06e9e9e32dU, 0x2cfb12c1f60c2bf7U, 0xf903f6da03c90918U, 0x5241a39e6fa2e1bU,
  0xdef31a1a1fe63ae8U, 0x4bf6814f1a2b3a0cU, 0x1b0c722aeb291dc3U, 0x41eea180f3ad914U,
  0xebdaf707e1c0b488U, 0x2204b5e339f3df11U, 0xed222827baacc3a8U, 0xf7ddcccedefaed0eU,
  0xf6c5f8fcf7f7cdc5U, 0x4e37c4ec0ffd1d1dU, 0xea274c0d03ffd3b5U, 0xbf29ad402092819U,
  0xcd15e7febdb8d25dU, 0x24ebdba7e73bd115U, 0xd0e3e1fc656f2d2U, 0x1438301c1323c674U,
  0x91eaff27f1fdc73cU, 0xf1e4c4cd027296dcU, 0x16180615d1f7c4a5U, 0xbe3203482eee8454U,
  0xe01ce7f80d170e17U, 0xc0ff9c04103243f3U, 0xe2014082200e2f3U, 0xb115f408eae0dc4bU,
  0x1de0e8fc1a05272fU, 0x3bfa3b06e32a4df8U, 0xd82d20121b1141bdU, 0x1c0908032a16eb28U,
  0xf2dfdd3312bced50U, 0x61f33cebed1bd8eaU, 0xe52232dd0517faedU, 0x18053d4601e0af43U,
  0xe5220eccf0f00a1fU, 0x25fc31aee91be0d8U, 0xf241bf513010614U, 0xf80a4be018e5fb4aU,
  0x3938d1e4f220e40dU, 0xdcebbf460ab32139U, 0xdef6f3080f31127fU, 0xddc32818e8085afaU,
  0x322ffb1ffb220b16U, 0x30249f1efc0ec449U, 0xd9f80646e455f759U, 0x17b36610cd041513U,
  0x7e70d09ffd83329U, 0x201de7dbef0d92fdU, 0xfa0ff5e3062115c9U, 0xfd101807feec030fU,
  0x373cf122c301f933U, 0x703a01af92c3b5cU, 0xd81aed5614ebe157U, 0x24d255d7d4d5b008U,
  0xccdf0b2516d32916U, 0x2df0e3da0205eefeU, 0xfce2bb2cf2ed2aceU, 0x282f51cb0b1599ebU,
  0xdcf718ff00fa13f0U, 0xfad6f0f7f0ffdee9U, 0xb00e3e716ab16e4U, 0x192ceade2f21e91aU,
  0xd1ed19f112dc041bU, 0xe2efe409fcff0709U, 0xff7ae1e27f6f4dcU, 0x25f81ee7d6faf2d7U,
  0xcfef10fa13f71a06U, 0xcdcacc1d0db911adU, 0xbebe0bcefadf49fU, 0xe6eaeaf52f0fc2b6U,
  0xe9e10c181aeb01e5U, 0xc7e1f9d41fbd23d6U, 0xeedcedeaedcfeceaU, 0x40fc2f30a23feb0U,
  0xe8c70341472e34d1U, 0x2230cf052322be02U, 0xdfed240f262636fdU, 0xd03dc2ec3f3a44dfU,
  0x1ef5dfe9fae3f34eU, 0x1b30a4230610020dU, 0xeef22d6d0201f0bU, 0xf1defe5c1c06ebfdU,
  0x240cdd0cced60505U, 0xd903d40c1bf7d6e9U, 0xdafe0afff643deedU, 0x10e4062ed3ef1816U,
  0xd41cf121325038f8U, 0xd28bfe45000734f1U, 0xe9e61d00eb404525U, 0xfc429be230292addU,
  0xf5f5c8152ffdece6U, 0xf50fad4ce7e0ffeaU, 0xd9ce4d2dee273641U, 0xec26fbf601201bc4U,
  0x3b33d6c3dcdbf930U, 0xde45844cd9f6dae3U, 0xf1fbfad819740ed6U, 0xeea63f08041d28dbU,
  0xf2fcfa2debfef8daU, 0xe4c921e725bcbbbaU, 0x7d214d1132f06edU, 0x2327c6d00321d2bfU,
  0xfb13d7100e0a0bb3U, 0x18c4092bf60f19c1U, 0x16d20d0ce64b2412U, 0x724bce414ef0e84U,
  0x8fcd03cfff200beU, 0xe604b36f08227ffcU, 0xcbed5218f7e91b05U, 0x97e4b9a3d71ff495U,
  0x1c0500e1f40cdf09U, 0x30bb61b08071840U, 0xecf7fc08fdfc0e28U, 0x1c1910f501fe06U,
  0x10f0adef0e6d80aU, 0x2cf5dde61cff171eU, 0x1a01fc1afbeade0cU, 0x1906361ee9ffeaf6U,
  0xe8f5f20009e81c02U, 0x11ea1edc0108ba12U, 0x1218f0e11704fbc7U, 0xf31af610fc0300ffU,
  0xfd1215fdd607ed07U, 0xeecdc4fc11fc3d4eU, 0xff14e31401d3170bU, 0x1522260a10f6f4bfU,
  0xd50719f901f004ffU, 0x29cf6b30ff6fb12U, 0x8f9c3ffefce13c7U, 0x81507eafc15ecb1U,
  0xda120f1e09ff0ffbU, 0xdd8103ebf8eb89ccU, 0x17eb0add02e2f1b3U, 0xd80cbdedf511f2c7U,
  0xf809f8fbf91ffa15U, 0xdad2c037eb181a2fU, 0x13fbe81703f714edU, 0xa09e901fc071ce4U,
  0xe7f505f2f5f9f818U, 0xcba8d7efe5e5b31cU, 0x12eae1eee6ec04f2U, 0x2f10e0dee0701e1U,
  0xeeed0c0b13ee1714U, 0xd9acc6f8ffe9bbfeU, 0xfd110ec6f01900ccU, 0xf001ed04f20ff0d6U,
  0xf000e701f20efadeU, 0xefe8ca0c1316cc11U, 0xc0b141efcfbe426U, 0xce9e70ee101f40fU,
  0x10fcf4fa051ad7ebU, 0x71da2220a1eb930U, 0x5f5051b1417e11eU, 0xfc96f9f5d6e8f203U,
  0x19fff40cfb170ff6U, 0xe019a61a0c249c2fU, 0xf512241ef1430ff4U, 0xfeb2fed7e1fef013U,
  0xfa13e214fa12ecedU, 0x36ebe8e6fd08cafaU, 0x6121e03f2e0d022U, 0xe6141c26deefeef8U,
  0xfe19f413fd0716faU, 0x13efbd0ded148102U, 0xf7000d0bfcfeede1U, 0xf0fd01f7cbd812f5U,
  0xf7f9f80312110813U, 0x10001e0b0f059d08U, 0x41b16f70e0e13ddU, 0xe70111f7e1fce601U,
  0xfeedfa09fff318f8U, 0xfde73aeaf41434f2U, 0xf7e8f712f303ff00U, 0x1a4c0f09040bfa03U,
  0x1ed1208f80515faU, 0xcfd4cefed03e1e1U, 0x9dbf3fcd6fe20d6U, 0x104514dff9070208U,
  0xf9f716000cf80804U, 0xf8e652f4f6fe18ddU, 0xf6e2f708daef170aU, 0x1e5108001718ebe6U,
  0xfc301e7f7072de0U, 0xfc22da3e1404cbd1U, 0xeaf64722f1eb3ce2U, 0x109dfca2c2e06d8U,
  0xcf3e8f3e3d7f2ddU, 0xed2fb7ccf6157ff6U, 0x13f0f90fcbfffd19U, 0x11f317f3f010facfU,
  0xe5f00aed2124dd05U, 0xf7f2ec400926faf0U, 0xe01318e8fddb05f5U, 0x3070c0ce2da17dcU,
  0xeccfe7fa330b3afbU, 0x1428ee2f0904eec1U, 0xf6fb37e5f0501ef1U, 0xf0f4d9cc30330afcU,
  0x32d3eae5f5f4f2d8U, 0xe948ec2125d2f2deU, 0xf5df370713eae1U, 0xbf2e4fa131d15ecU,
  0xfcf01ffdfb1ce50aU, 0x101d1026091f1319U, 0x3242dfce803dcfaU, 0x2be01815fcd9f1f4U,
  0xf5141b170e1be135U, 0xd700ed230c02f9ccU, 0xe8ff0f161355e50fU, 0xe07e4ed23021a25U,
  0xf7090fd50309ffe0U, 0xdd1aebeb19eb1d04U, 0xf1160226cc1e14e9U, 0xef30401fd0de2dfU,
  0xf1f60801170bebe9U, 0xf72d1ee2081501c9U, 0xf7f80ef60c0efc0eU, 0x7ce0cfa00d508e1U,
  0xe5f508e5f71ee1eeU, 0xe8f7e0faf1e9fd1aU, 0xf1f6f9f50bd5f613U, 0x245ee70a22060b17U,
  0xfe0bddfadde809d8U, 0xea07faecfa14ff1bU, 0xff11f8ee051db807U, 0xf220fb13d6e00a17U,
  0xbfee3f0dbd9ef03U, 0xef003dfef60ce5fbU, 0x9eee01707cfe1U, 0xc42ffebe2f4d412U,
  0xe900d802ec15e9d5U, 0xd20901e0e2fcf71bU, 0xf902f6e004e2f020U, 0xda2eea170ee21fe1U,
  0x231de4fffd0600f7U, 0xedf6fcf1e429ddfbU, 0x5020cde0424cdfdU, 0xb040c1cceb2120dU,
  0xefafafcf3ef0905U, 0xab09670dece5e3feU, 0xf709ecfa102be3e7U, 0x18f01ee9c4e003fdU,
  0x1808db08fa0f0ce9U, 0xe00745eef11ab6f0U, 0x2eb030d12f6e7f4U, 0xd9391215f7be1bd0U,
  0x1a05e223f5f00afcU, 0xe41d01fafa23ff01U, 0x181f0aff081febfcU, 0xfbeffa25d1c81df5U,
  0x24020815fdf52923U, 0xeb207f19000cdc06U, 0x21dece40c4025fdU, 0x2114110cfbe226f1U,
  0xea1deef7150622fcU, 0xeabd1c23e1f8fadcU, 0xf5f9dcb41bef2116U, 0xe0f107c8110427d2U,
  0x61ee4e20d36f405U, 0xdce20037dfbd1c01U, 0xfce5ed3ef6ee2f71U, 0x305320efefa040aU,
  0x2e1408f9fdf1e2fbU, 0x1b0c00d9f70ae633U, 0xe904e828f8f8fe1cU, 0x190237f0f505f1e7U,
  0xf14dcc820560d3dU, 0xcdd2d326e4ce2a0aU, 0xe9f1b2f4fcc4357fU, 0xfff8551dffff0f3eU,
  0x111e26fa07e0cee4U, 0x617acd112f11c33U, 0xf200bf29e307f05bU, 0x1bfd3acae404fbb0U,
  0xdf002f820f408e5U, 0xee28fefd110e26eeU, 0x1301ef000ddbfbfeU, 0xe40309072ae71bf2U,
  0x152409e0de1000e5U, 0xed04da012105133fU, 0xff06d752ceb11252U, 0x52b4aebf408c7bcU,
  0x1101cf92df9e9c2U, 0xf410edc4fd0f1608U, 0xb0af20c03ddeedbU, 0x510d8ea10f232f4U,
  0xef0a0af11c35f1edU, 0xd5182108f7efc7ddU, 0x10f121f01dbcfd02U, 0xd4fbf9e616f4e7f4U,
  0xcbd822f91217e2f0U, 0xade2cdea17e1e3fcU, 0xcfe3dbf1bbf80a42U, 0x2900fdcadc19fdcdU,
  0x407171a0826fcU, 0x1a1ff7dc05d963dbU, 0xbe342f7c82ef235U, 0x160313d70720e3d4U,
  0xef1de03a0225ee04U, 0x424690321fd3501U, 0xe9051c0ed8152920U, 0xfa2210edf6f9f2d3U,
  0x14eadf16fdfe19c7U, 0x212fe2f722f630eaU, 0xf3ea3400b2f2f7f7U, 0xfa05e5dff823ecb6U,
  0xfbdbfef300dfd3efU, 0x1c68f72c0cfa2bccU, 0xaec3ceae105ef13U, 0x1c0ccfc8fb0435e2U,
  0x4e3a282230251112U, 0xdf1a14e005dd2d2eU, 0xe3f701ebd21eee16U, 0xe1257fa1b082dd9U,
  0xbecd13b391821b4U, 0x180140151ad5ea1eU, 0x28e038141a2e1a0aU, 0xc8f32b98fde314e8U,
  0x3d4fe5d41dfef9f0U, 0xd718e2d20ee31f17U, 0xe7f30b21e10b3562U, 0xc835df2dea2de4U,
  0xd1929ecd7f5c0cfU, 0xf4f0ed60d157f20U, 0xe3e62c26e5331afdU, 0xedd721d5dc3334e4U,
  0xeb2af9f61b07e211U, 0xf5fa27f3f7fcb2f5U, 0xf7fd121208d9f818U, 0xfd15fc2314dce222U,
  0xfd0ef5efe3ecc6e6U, 0xc00b0ee0e1f6e925U, 0xee030f1dfeacf93dU, 0x50613f202d9dd16U,
  0x240b01e703faf5bbU, 0xdf001fcb0c19293dU, 0x1317ed1ae1dcee15U, 0xfe2608a504d4f6e1U,
  0x71917f5f211c8d2U, 0xd60d07d3e8010cfdU, 0x10ed030f09d9d722U, 0x1fdf3f300d8f216U,
  0x5fb13fc0bfdccbcU, 0xd504fdb5ff1c1b1fU, 0x6f7c21a10c7f20fU, 0xf8f0f4c9f8eaedffU,
  0xd8fc12f11b4b1132U, 0xe5ee38eced0581e4U, 0x516c0ea22e72728U, 0xddfa12f60dec032dU,
  0xfb0617f11e2905fbU, 0xc5e327f2001a0f36U, 0x2213e62fe6e900daU, 0xfcf1daf003e23ed5U,
  0xed16f0ed3c4c2015U, 0xfcc93a10e1e9d202U, 0xfbedd6ef0cdb2f2bU, 0xdd0f05d338ed3d17U,
  0x30de1e61d473814U, 0xd4df3a26fbf81732U, 0x304e82dfb04364eU, 0xef3b4bec2ff31016U,
  0xe8fdf6f5f3f90627U, 0xc0ceb0a0f0f81fdU, 0xec0118fbf2ef082cU, 0xfc1405e610ecf9f0U,
  0xe60409f00cddf805U, 0x27f8000ff6f5afefU, 0xfbfff605eecdf40cU, 0xeefdfdd9f016e0c3U,
  0xf5eee50a02fbf400U, 0xe9e4f60700f6a2fbU, 0x1f70aedfbf9eefcU, 0xf1f202f61dffeef8U,
  0xf818ee0a1ce10702U, 0xe2ecec0a0bf1c6f4U, 0x1a0d01f3fef1171bU, 0x3ff19c31d12f0d3U,
  0xfae8010ef011e906U, 0xfcd4d8e00910071eU, 0x1112eb22f7dc1231U, 0xffff14dc180102caU,
  0xcf01e429110efedfU, 0x3202d116ea06a6d4U, 0xe6102fea11fc19f3U, 0xe4eacfd71716f3f6U,
  0xe2ec1907190e0befU, 0xf5e1d30b310fea2bU, 0x24ed0a33e4041e1fU, 0x17dd2ce009ff06f7U,
  0xeef624001e080f01U, 0xd9ecde15fcf19ed6U, 0x1913070d02d7371cU, 0xe201e8e9ff00e3e0U,
  0xf4f3fc0933270c0fU, 0xd9c8ef2c0f0ad706U, 0xf00e2aefd0121828U, 0xe1100b02340bcf04U,
  0xc1e6f813f2132538U, 0xdcb1a0f0b02221dU, 0xfee3fdf6f3013412U, 0x17150f490919e21aU,
  0x13ed04fdcffa0b05U, 0xdee300f5f6f80e30U, 0xe1e9c0fbd7c71030U, 0xfd2d1cfce51eee09U,
  0x301229141ae513ebU, 0xf50f01ff161f0f1eU, 0x16f9f4380a1cdc0fU, 0xf5f53fecd1082affU,
  0xd5f9e7190d103617U, 0xdbb092e17d6bcf2U, 0xe206e2fe1cebfa06U, 0x6120bfa18170105U,
  0x28e712d8f7c7feacU, 0xdf18fc14ddca1efaU, 0xeefac625e0e5e119U, 0x20221dc4ec12cb81U,
  0x25f61af9f2cfe093U, 0xe07eedaf40810f8U, 0x2309fa340a3bd4f3U, 0x26f0e3c9cbfd17aeU,
  0x1070e23ff082201U, 0x1411072b25cde005U, 0xe901f0eee4fbfb16U, 0xf90aedc5f60b1ca2U,
  0x3af81cd9facfddaeU, 0xe83bf700ffc4e808U, 0x1aecec25de0df8ecU, 0x90210e7e520f186U,
  0xe030bff05e7d40eU, 0xd6fcd8bb18e8d6f0U, 0x2011f0fe0a3ae3ebU, 0xdd8cf08dee510deU,
  0xee0c0805120d0a30U, 0xf301e8f8f006de20U, 0x6f7d9f801d21325U, 0xfe0161c16f6db13U,
  0xc0c01e2e511f42dU, 0xc0fece8e9ff070dU, 0x9f9ea00e80b1015U, 0x150215300606d51eU,
  0x15111703f6f2f826U, 0xe8120fd2fa050910U, 0xf8ebd9f9fcfb0803U, 0x1710162a0914fe22U,
  0xe80bfc03e5fede06U, 0xeff2f3f0e81f090cU, 0xe0e4fecc0993fa03U, 0x800fa15f9f3e510U,
  0xdf007dde3d3c512U, 0xe41df9b6e21f3f2bU, 0xfef9c0ead4a7f7faU, 0x20ea0dfefedfd007U,
  0x251606d6d2cfb90dU, 0xed1825b2ea193e15U, 0x5f7e705f5f4eeecU, 0x2518ff1404f7e711U,
  0xedeb041400d4f0d5U, 0xd8fcfaebf5ef1e19U, 0xeedbeaf3f5de0ce9U, 0xa01e8e4fbf5fedeU,
  0x14ef01deedc7bc81U, 0xeefc08d9fd0b4225U, 0x9f2defadac1e21aU, 0x180efac8eefd0ba4U,
  0x12fe04ebf2fdd7d8U, 0xe00e52e80ffe1c0dU, 0xf05dc02f8f405f4U, 0xf70ef7fc050519f0U,
  0x3251e06e6ebedc4U, 0xdda1ad10c0af318U, 0x282b48f6e609d5efU, 0xc1cf2c80504f9cbU,
  0xc8e91b2cf9ee38f3U, 0xfcd50df70a2281efU, 0xfc342d12ecf90905U, 0xf0bfedcebf02527U,
  0xabf009e510fe0b15U, 0x26d221ebe6f914dfU, 0x5ecdbcae5c71f15U, 0xc3fe0735091fdf44U,
  0xf63addf5fef4353aU, 0x4024f3dc1f25f31cU, 0xe32f47d128000246U, 0x350c462019120727U,
  0xb1beae6df03282bU, 0x2ec80df2dbf55c01U, 0x7303a1319021a0cU, 0xe5242bfbf0f5fc37U,
  0x6f4f10dd3d3ef0bU, 0x2dc7f9d7ee104119U, 0xd8090a05f4e8f234U, 0xdf02201cd4f9e6fcU,
  0xfae2e90febf6f804U, 0x3719eb02fef8fc32U, 0xda031be714dee4faU, 0xffcf0180b08ebf8U,
  0xf1ef1f00f3d2fc1eU, 0x380900c81122d1d0U, 0xfa08e4de15dce6f1U, 0x509f42e1e010d0fU,
  0xe0bf2c7d2df02fbU, 0x250ff6acf6e8e810U, 0x1a15020ef922f7ebU, 0x23141b2e04e1e433U,
  0xe0f2f7ea1a12dcebU, 0xcc0923d6290bc9d2U, 0xf8e7eafc08c5fef9U, 0xf101dfb52ff74302U,
  0x23104c2e706c8f3U, 0xc0e6920f6e45848U, 0x106ff2afdd10f6dU, 0x161a0b19072bf628U,
  0x1519fdf3f6e6f4e8U, 0x1ad332e12eefdb34U, 0x1a2316030125f53bU, 0x2fa1e0afc0effffU,
  0xf0fd2bdf0a03fbf5U, 0x12cc39f906da7745U, 0xe9f71d42e7811151U, 0x222e03f536fbea33U,
  0xf31315030b26d9c8U, 0xdccb16fb082c2726U, 0xa12e8f601180942U, 0xeef01b10ea062d12U,
  0xeefbf2e7eb272014U, 0xcea416edf1fd90dcU, 0xf0f2e3e22c1b001fU, 0xc4ff3cf8cae507edU,
  0xb3f6f6f70a14dfd8U, 0xf4b010d2f8f36b1dU, 0x13facb00ffacef4aU, 0xde01e0f50be93906U,
  0xf517d0fd002a101eU, 0x1aa0c317f0f606f2U, 0x91d09cb190d2241U, 0xeebf0a0ed2ca1ffbU,
  0x80be9021b094535U, 0x5aff314e1e3f83dU, 0xfd10f3f31c351a02U, 0x20044e01e9180de9U,
  0xf6ec0ff0db193b28U, 0x31d45bf8fa226536U, 0x5e52b27cc010ff4U, 0xdf4e15293b303144U,
  0xdcf4ebde20fd3826U, 0x57d839ac040b58ffU, 0xdee0091213d21933U, 0x668106c29fdc57fU,
  0xf63811f62631e925U, 0x6618e207cc21d616U, 0xf02a48020dc125e4U, 0xdfbed5518e4db50U,
  0xccd5d6fbda2fed19U, 0x1be024ad090f7916U, 0xf08ff19c9f2fe44U, 0x1be532eecf3e2b59U,
  0xf9031e10ef1fdcfbU, 0x1ae812c41dd7a742U, 0x728123e050eed1fU, 0xf62ffb01e635463bU,
  0x4007f8dcec22e3eeU, 0x2412fdf90c21abf1U, 0xd9353164ffe80078U, 0x141003fcb8f8094dU,
  0xcad4142826f807e4U, 0xf12ad7fedaddcaedU, 0xf920f61bf7380adaU, 0xedcd0733cafc1007U,
  0x1eeefdbed8defdf0U, 0xcbeebb39e7dfac1aU, 0xd7fcdf2c1125d8eeU, 0xed071d1cf8f7fd29U,
  0x2b0bddfb162ef6f3U, 0xf0fdb918d1fb11f9U, 0xede3cafeee28e6beU, 0xdbd2f9f9d6ba51f1U,
  0x21dfbeef809c208U, 0xfdeebbfde60ffb29U, 0xf1150f10f3e9ee16U, 0xfab30d00eadbdd22U,
  0x31ceaf2f8fccdffU, 0xcfea30dfafad709U, 0xf908011408ebca0bU, 0xd3810b05e8c6fa26U,
  0x1df00aebfdf7df0cU, 0xf01bbe180aea1c19U, 0x7080d1a013b090bU, 0xf8af0d13f6e40e29U,
  0xfd16f10c0012eaf6U, 0xeee0e021f515ddfaU, 0x80c06f9170ce11cU, 0xfcdc1d10f0be1019U,
  0xf14f80cf10801deU, 0xe5e9b701e5fb19fcU, 0xf212fe0d0300dd01U, 0xbcf006e9ccc1f30bU,
  0x1104f006fa21fbfeU, 0xf11bde150e0e1700U, 0xa09f206f72e0718U, 0xf6e017ded5db2218U,
  0xd1a020c131000faU, 0xf7031924091f2d15U, 0xfa04112003330b2bU, 0x14c41b0602da1305U,
  0x1305ef0112f80107U, 0xcbee2d0307f61709U, 0x70fed13061bf8fbU, 0xfaf603e4f7c20201U,
  0x1f0610140909f9dcU, 0xed05f71a0311e3ffU, 0xfe08fc0a022ce6f5U, 0xf8e913deebd40300U,
  0xfdd00412ea03e9dfU, 0xda2ed8a8ee0b20fdU, 0xe7153b01dd071dc3U, 0xdebb13cf1f0feac9U,
  0x180e0829f9f814d1U, 0xd1f9d7dc1f20e7d1U, 0xf0131d001b1b240eU, 0xe4bb0f1913cfe936U,
  0x3e550f0bee21cc0aU, 0xc03dd4c61a1f1f07U, 0x151c1005e0e41ed0U, 0x5bd06120fe21c17U,
  0xe111f2fdf1104119U, 0x40c0f9c1a00daf0U, 0x1526371fd82c2b3fU, 0xefdb3dfbfde2cf43U,
  0xcbc1f4e21afe0ad4U, 0x57dce3b024fc88f7U, 0xd60e2b02dbf7f6eaU, 0xd311f4cf102ed696U,
  0xefe2311f03d118b2U, 0x260edee31cf2d0e4U, 0xe6355d34fdce21c6U, 0xf5d92bf82a0700b0U,
  0xd3ac21bad2ca2021U, 0x3e48e58141f3e105U, 0xb050816b3083009U, 0x3f40ce33737db39U,
  0xdd092a110e28234aU, 0x5528ecb903e289f1U, 0xe0df3e28d4434107U, 0xfa2bf7f8ff3ddd49U,
  0xda18f8f61f34f443U, 0x62d922d72b380b22U, 0x17150c2ecf390344U, 0x1b493e3124fbfa5cU,
  0x12e209ec12ffddccU, 0x3d17e30713fc9afbU, 0xf6e227dbfd70ebeaU, 0xfd14e7ace62321d3U,
  0xfbfce93e02fdc5f7U, 0x1d35c5f307ffb2f1U, 0xe1e7502ec27f011eU, 0xf5f11adb25fa1707U,
  0xfc1b131c18e1cd2fU, 0x1401adde200bba20U, 0xfc190331e3260be6U, 0x15c509f814dff315U,
  0xf8edfd12fff0d732U, 0x31f50bf204182a24U, 0x1d1425f0fa1cea4aU, 0x1ce1030bd120c81dU,
  0x7121e0df52ee211U, 0x48fc0f263c2ebe19U, 0x18e53dfcec400af6U, 0xf3d92bd6171ef50dU,
  0xd09fe1e1defd72bU, 0x32e8051b14f78beaU, 0xe519ff24fe07061aU, 0x41b443d3f3132712U,
  0xd1dee7c9e81a062dU, 0x18d822d7bf052dc7U, 0xf0820f306061c02U, 0x6f6fa1edaf4e441U,
  0x1016faf2e312f62aU, 0x1fe321e5ff152c00U, 0xeae315f0113d0932U, 0x1eee2226c90fab2bU,
  0xf410f2016002d0eU, 0x24f538da1d10534dU, 0x1f140354df1cdb3bU, 0x24ef39ed04ea19efU,
  0xdcfc21e3f413d306U, 0xf605ebde211c52e4U, 0x240a0f2ff90fed18U, 0x2be1c820ec0d130fU,
  0xe1132a090be5ce00U, 0x16d4e0d62028fc1bU, 0x15f3ed13f9d4ba1aU, 0xe8e9e8160831c828U,
  0xf3090be9082bf523U, 0x404b0c3212bff04U, 0x1ff6f040d7eb12ffU, 0x1beafd271843000fU,
  0xc90acec4130ed61dU, 0xebe7811dd1a82014U, 0xe5f5cf33080a15U, 0xe012e92e12c54600U,
  0xe2f5bbb4160de709U, 0x13e8a1f1c3b5f016U, 0xe3f9edd811c5d71aU, 0xd0c01a2ce3dc4608U,
  0x1bebce95da1fed01U, 0x24f9a201d3bc0a0dU, 0xf101e9fb32fce2feU, 0xf4b9222ee0c3090bU,
  0xecf9f4f3ee1110ecU, 0x9fd422ae22df82aU, 0xc0ee61602ecf4fdU, 0xeaf9fccec5092714U,
  0x28d4d70b09fa15ecU, 0x1bfb532dd8faa217U, 0xcfd9cc26fff3ed07U, 0xf0dd2df7ace64df2U,
  0xee8f024fc0a37eeU, 0x302418100014e931U, 0xf30d0944f1522309U, 0x200f1af7cdf446c3U,
  0xbec16fa250801ccU, 0x531804f412214ce7U, 0xd2628f9e105160bU, 0x1f0cf8f3012b0709U,
  0xc9110ef82e11fbd7U, 0x29d215f10f153bcaU, 0x11120526ecf1e5ecU, 0x224d0ddfee2190cU,
  0xa9c9390b0ef4c5deU, 0x1fc11bea1cce54d6U, 0xaf7ecf5c4ad07eaU, 0xf7f8e9041a0ae9f6U,
  0xc5e11401241ad123U, 0x5ef2c3e812f1040dU, 0xfe1e2acce405ef3cU, 0x2f03da0e3315de73U,
  0x8f080af9172801ffU, 0x1fb8e0c5cffd2318U, 0x270405d60cc1ec21U, 0xbdbffc33fe02c476U,
  0xcdeb1bf4d906bb03U, 0x1ecad8a202f35b05U, 0xe5091ae314c9ee28U, 0xf2d9133cf5e9c97fU,
  0xde0cdf15f62e2411U, 0x14cf0a27d91d2e19U, 0xf610e5032bc3ef21U, 0xf6e8113f25f6de39U,
  0xe7fedccad6041923U, 0xd8cc0c00cbf9152fU, 0xee4ced50ed1e617U, 0xbbb5df0cfaf9ee59U,
  0x33eae6e90b031df6U, 0xfe81ef1fd1cf92fU, 0x6ebb71e13f4d53eU, 0x30010e7ff030334U,
  0xf6d6f7edeada1004U, 0x2a11dbc00b1df70dU, 0xf8e4e2f4ddac0f28U, 0x2f332001160ce1f2U,
  0x11616efd2cfd9f3U, 0xe516d2bd11f9faffU, 0x40cd207e216e023U, 0x103161ecf18c003U,
  0xe1af9fd0b08f6efU, 0xf8edeb08053cefU, 0x1d1c0c28f218f3ffU, 0x13040907ea1bdc06U,
  0xfcf8f9e0e1d6e6d8U, 0x2b0328a50c00340fU, 0xe7eaeb15ccb00844U, 0x234e07190d21edccU,
  0x20717f0f2f1ace5U, 0xe5ee96c7e502161cU, 0xfa09ed0ee60cee39U, 0x14fc0836ca07cff8U,
  0x1d2d00000c20f424U, 0xf8c18113071befeeU, 0x221ecec1131e9f6U, 0xdae70b00ddf6f816U,
  0x8fb0b09e0e2f5f2U, 0x271534d40b19f32bU, 0xb091106ddd61752U, 0xd47f1000a05d9e7U,
  0xb0cfee7f806eefbU, 0xffdeb405f405a809U, 0xf1210afd0adff411U, 0xe4f01410d5f416edU,
  0x2531f8ff0e030612U, 0xe1e6d00addd7c9b9U, 0x61305df2038faefU, 0x7e62e1ef7f90b0aU,
  0x172efcfc191d1314U, 0x9acbf0b15042618U, 0x2810e6000af00a10U, 0xdefa1adae6daf8e8U,
  0xbfbad6272e3e1ed4U, 0xcccbd03cdc19cf00U, 0xd9e203b207f136d3U, 0xd3dbbd811b2dc3ccU,
  0xefaf08c6293327f3U, 0x32f30248f6c2220eU, 0xded51ac9f6e02615U, 0x525a27042307add5U,
  0x23460eea0609d109U, 0xbee3acd8d7d6f9d7U, 0x3300c3c44822bcf3U, 0xe06f937e3b9ebc0U,
  0xb8ffca3321fc2cf9U, 0xc3a6f84504dfd4caU, 0x8fc21c0fefa0dadU, 0x99f48cbf1f088dd3U,
  0xf49dead61ee40c1fU, 0xfd0e244f319f2728U, 0xbef523e3d7f2161bU, 0x1f13d1bb29119d97U,
  0xfb27d9fee0ebee04U, 0x2dc8b122f10a143dU, 0x29081fdb5beccbcbU, 0xfbd60540fedf46feU,
  0x10190342ed421750U, 0xd6d70013c9f45842U, 0xfdf80eda50230ee0U, 0xc9e1f2db2cd8cb0fU,
  0xffbdfa2027fb3bffU, 0x312b093bfbfd2e17U, 0xedc9f10d0ad33b2cU, 0x2f20e8aa201123f0U,
  0x20bf3111afd18d6U, 0x14e2363f13f6e6d9U, 0x260eef011d2000e3U, 0x1edd8e207182200U,
  0xd31a0704f90807d0U, 0xcec4d82ff1ededa0U, 0x1bfde7d92ce4fb9fU, 0xf304c2b501fd09b4U,
  0xdb160a030b1218ecU, 0xc924874ce5fe01e7U, 0xb10fff506e91ed5U, 0xfef7f7b4150a0ed4U,
  0x20b0222051b16e0U, 0xcf65512ffe5bce0U, 0x2522e5dd271e18bfU, 0x2d4ad7f50c214fdbU,
  0xe30d100a03effce0U, 0xdbc4050503d4dee2U, 0x1e00f0dcfef7e781U, 0xf70c85fb1e0901c1U,
  0xf2f8fb0212fc03cbU, 0xf411ad3fe5ea01f5U, 0x120320e105e006b4U, 0xe1eda80d1ff802deU,
  0xa1a011d10d2f6a9U, 0xf4c0530cf3d6d9d3U, 0xf91bd1db18f2fbc4U, 0x1550d8d9e50e17cdU,
  0xf317fc1110f6e8a3U, 0xbdacdc05f5e913d2U, 0xdf8facf09fdff98U, 0x408b1b100e9f586U,
  0xf0ede206efffefbdU, 0xc3c2a91adedaec17U, 0xf21c0fe917c7f0ceU, 0xe8dcaebe00facfb1U,
  0xfde4e7fc02f70ae5U, 0x70828fe04172632U, 0xe3f201e109ec0527U, 0xe9fcdb0df00ff8e8U,
  0x2ae506c6eae91003U, 0xe1a0ce4e4f8d908U, 0xfcf3ffc415fbec02U, 0xf30af612e91df926U,
  0x3ed0cfaf8eb1304U, 0xeb191cdff7f8dbf3U, 0xfaeeb8ebff1ae3cfU, 0x3d1814e7ee23df0eU,
  0xffb060513120ff6U, 0xee041de5097f3dU, 0xfce20deffcefe910U, 0xe7040516e0f72ad7U,
  0x34eecf1adee0f905U, 0xb21031bf5ffee21U, 0xd50efce716f80bfaU, 0xf3e7ec16ec2222ccU,
  0xfe318eddde4f11fU, 0xd36efdf03c9f51cU, 0xfaf512ce07430de8U, 0x35040c22fb001b1bU,
  0x18f503f8062b22faU, 0x16eaf62bf21d2406U, 0xdde409d91c170303U, 0x1514e3e012fa3dc8U,
  0x1206d511e9162bcdU, 0x40f0527f408ccf0U, 0xdbf0dbd411fa17f1U, 0xf8f6e006edfc3ca4U,
  0x16e7ef26d6fa1225U, 0x91dfd0ef61cfe1fU, 0xfb07e7e5222704edU, 0xfde301daf706ddU,
  0xfffff77bfffff50bU, 0x40e0000226dU, 0x128fffff9daU, 0xffffeadbffffe5deU,
  0x25100000012U, 0x1b0fffff7d5U, 0xdd7ffffffbfU, 0xffffe925ffffdcb5U,
  0x116e0000012eU, 0x1e660000157fU, 0x44effffd96dU, 0xfffff4ca0000081fU,
  0x180bffffdfe0U, 0x32300000507U, 0x17fbffffe6daU, 0xfffffbf8fffff638U,
  0xfffffbe0fffff3e9U, 0x4b700001227U, 0xfffff28bfffff754U, 0x328ffffe9a4U,
  0x1f3fffffefeU, 0xfffff04e00000524U, 0x2318000007b5U, 0x8d5fffff816U,
  0xdc0fffffa04U, 0xc3e00000a51U, 0xffffef2bffffee07U, 0xfffffa45ffffdfb3U,
  0xffffb931fffff1fdU, 0xfffff58000000e9dU, 0x25b0000089fU, 0x12e200000e9eU,
  0xf64a31e645fbd746U, 0xfae4f607f8dff70dU, 0x21051e14f718fbd8U, 0xeda1f2f21e25d71bU,
  0xe6092de1dbe6dfc2U, 0x2066031d15e42514U, 0xf4ddc711d5f419ddU, 0xe6daf34de6defdf3U,
  0x1a290a0e3209edd8U, 0xe5d0dffeeff7d1ddU, 0xe518000d05e6d4f9U, 0x1011bae026e1c62eU,
  0xe0812f7e40120d0U, 0x2130f33b14efd3fbU, 0x1e000ce5a217d7f3U, 0xbf080553ec12f6f1U,
  0xcfdd1d1a120802d6U, 0xf107ffc0272fd9fdU, 0xee720fd00eb3738U, 0xc5feb524ed1af046U,
  0x6da1c0f151dd8e4U, 0xbbeb0acc1336a725U, 0x6d620f4bfdbe4d7U, 0xc3e7e04df309faf7U,
  0x1c0a07df0705ee25U, 0xb701eee50f28eceeU, 0x1604fb39ef0dfceeU, 0xf4e2cae41f1cc830U,
  0xc0225e108d3e3b5U, 0xf03e2a25eb3d4621U, 0xe4fb0bf381d5ebb6U, 0xb3f8f929a4d9100aU,
  0xf7f3df211300f9caU, 0xfd0d0691282624c3U, 0xee5121425f1d252U, 0x50fbe7bb0ce2c31aU,
  0x44dfe0c4de6e8b2U, 0xa4614ecf274aaf62U, 0x1ded5c07a80b05f9U, 0xb425ff35d2000afeU,
  0xebb9b742d4fef4b1U, 0x21df06cae32eeffeU, 0xe0d31dd226f62815U, 0xc2a00e7e4fe153eU,
  0xe2f3dbf10af9e424U, 0xbce20eb62d3ca128U, 0x21da32bf8aac0416U, 0x96f113fec6cde816U,
  0x1d19fe0e1df6114cU, 0xb1b1f09c7fd0f19U, 0xece82d30ee11f9f0U, 0x1e302e80845c822U,
  0xed34292dbcfd2cecU, 0xe929062cf2f16e24U, 0xccfc1f068820f0c3U, 0xced1f8d1bfec10c7U,
  0xc6a9c84a0007e4eaU, 0x10065deff4f704e3U, 0xcf5ffe14e3e17efU, 0x490e35e5fc3a26feU,
  0xe0271434522b0312U, 0xebecf5161525ed5aU, 0xd119d9f2f8cae413U, 0xe00ff503d4d3fd0dU,
  0x2304f918edfaf94eU, 0xf4e571280cbcd4daU, 0x1c471df1010831caU, 0xdd01f1191c0b17f2U,
  0xfd15f7091bcd382dU, 0x2024c00814141d41U, 0xd10eeaedcff617ebU, 0x2ae227efc8db1127U,
  0xfb14feb13f0a0b05U, 0x2b540b5f43019b4U, 0x141bf4ca2604fd56U, 0x40f0dbb72f25cd24U,
  0xddeace111f020ebfU, 0xff5515eaa61fe210U, 0x2dd053cc12b02b1aU, 0xd9d1ff16fc1dd1f3U,
  0xce102a81e12cd99U, 0xd8c945a12eed14daU, 0xfe4302b04dc028f2U, 0xcedc04ad1216e6fbU,
  0xfb10e9f9df18ebe2U, 0x354031d58cf59ae0U, 0x4f50bf14bab28eeU, 0xc9c10201bf06d009U,
  0x170dd4e8f417d4dfU, 0xdf9e4e6efdf39e6U, 0xe22c05ebf7f9e5f2U, 0x14ab0610ff19f7cdU,
  0xf5eeeab406f805f8U, 0x3c2e3cd79fd1ffdfU, 0xd261cda42c5150fU, 0xc7c2f85acbd0db0fU,
  0x293f0fd2fe15f7e1U, 0x381602ce0d1ee6e9U, 0x241539070b08abdcU, 0x1bd9dfbc38ff9d1dU,
  0xdadb99efd60cfec1U, 0x172708fadeb1f1dcU, 0xc8c7dbf321c3f1eeU, 0xb5e3f917d0d2181bU,
  0xe21deae70d0c01c3U, 0xe1c8f8b03112cfe6U, 0x8fd1ef012e210e7U, 0x4bfa20ba11fbce14U,
  0xe9a4a4bee00eccc7U, 0x3021271dd9f0dc19U, 0xfecbdaec10d72f24U, 0x939db62a1c07101aU,
  0xdd26d01b1cf7dee9U, 0xe0e7d5b31a200bc6U, 0xd73403cddb08f1f6U, 0x2fe12af3d4d8f704U,
  0xa6d2f831e9e6daU, 0xfc350f03b6c7d704U, 0xfaf316af79dbf837U, 0xb189cf63ff17dc0fU,
  0xa05060bfeff0820U, 0x661cd9e1dd17cdfeU, 0x2a0e0925e80bf9e7U, 0x49090fd9293bd3e0U,
  0x21d8effbacc2837U, 0x10e40621cdfc3624U, 0xc01f00fd81e6fbeeU, 0x37e8e3b7bffe032eU,
  0x2b1e060915f20e2dU, 0x1b141c07fd16ea14U, 0x3432f6d9c0a32ba9U, 0x211def1314ebaef3U,
  0x31acb01f5d43f02U, 0xb1efb1bb6fc02e1U, 0xc32ce431c1cb02fcU, 0xdf93d4b413424c02U,
  0x211b25faff09280cU, 0xd9311de0052f0c08U, 0x2815f0e8b9dd23f2U, 0xfb20ec17ffd3b4ecU,
  0xc13efede5fff6e5U, 0x6432ff9c5e6fcaeU, 0x1c3b0730d5faf330U, 0xc9b7acf3fa07182cU,
  0x230d0d25fe080df3U, 0xff05b8feed08010fU, 0x14fa2737fa0ffbe5U, 0x1028011714f7f0f8U,
  0x26dfefebe30416f5U, 0xf0ec1c192e021531U, 0x2306f704f5141800U, 0x2b0317fde2ff1d02U,
  0x151efaf0fe10daedU, 0xb6e69e1afd0af524U, 0x2f0ce1a040600ccU, 0xf8e615ff23e515e8U,
  0xf5bff401e30cf602U, 0x609190f0e1e1012U, 0x603ebc5e809fbdaU, 0xfb221a14ebd6ecebU,
  0x101e60022ee04U, 0xf2d4f43ff2f630fcU, 0xf120e2fa050bfdf0U, 0x140806e91f07ecd1U,
  0xe6000ffcdc130709U, 0x13011d0c15071807U, 0xfbf730d718f41321U, 0x1f1c080dcae1f9f7U,
  0x4e90502d1e2fadeU, 0xe905ddc01f0c0c06U, 0xebf0fc19ff0b0709U, 0xf1f300e0eb081d18U,
  0x1900fbd7eb05fafaU, 0xded1edfb130be7f0U, 0xeef0d2fff4d815f2U, 0xb7ee0cf90c18dd1bU,
  0xeed3f2d7d903e4ddU, 0xb302a0f400f5fa16U, 0xe3e1e905040423f7U, 0xe5fd08e60b011dfaU,
  0x1fed0200e016f10aU, 0xdbd7ee13f3260206U, 0xf4fde5e70dfd18dbU, 0xdb17f6f31c09e8f6U,
  0xd4ddfdd3f9f612f5U, 0xb4f6f9230eedfbdeU, 0xd510faeb15fb1727U, 0xede1f8e719f809f4U,
  0x1f5f702e9fe00e0U, 0x1df1510fd06eddeU, 0xe4eee5f539e206edU, 0xdaecf2da0c0bd8f2U,
  0x26260cfe1105ea2cU, 0xf40b9bec0eff0429U, 0xe509cd19df1c0704U, 0x261a020cf9fd0f08U,
  0xf2e02146060a151cU, 0xe3370108030c0f34U, 0xdb05eff5c2d00b20U, 0xfbfb201e0abed714U,
  0xddeebc8f501c917U, 0xd4d4810fdaf1e204U, 0xd8e5d127f319f9d5U, 0xf2d814230f04f8f8U,
  0xfad30b0aee24050fU, 0xf221fd1df4f40aeeU, 0xdccfbebf3903f7e3U, 0x190b02d6efc9d2e4U,
  0x2ce6f6d7fc09d3f1U, 0xf3040234deedf005U, 0xf4e5e80e0219f7e8U, 0x2cdaf81a08f305edU,
  0xf5fff7dff6200706U, 0xee18360e001600fcU, 0xe4e1ecb75a04fc0cU, 0x15ef0516f0ebf5e7U,
  0x24ec1da1fdffe732U, 0x1204e000e3022000U, 0xf7c804fbf6112a25U, 0xf2cb2339fbe5e617U,
  0x82a0e3b06f4011cU, 0xd51c1302b6fb0d0eU, 0xea0312ef3e001c11U, 0x33eef0f34d0c1d07U,
  0x19eee7ecc4e0f4ffU, 0xfa21bf0fb312e601U, 0xd9b030f64e134820U, 0x84f70526f131ecf5U,
  0xf94a13f9091db120U, 0xe09cfcfecfdf08dcU, 0xecf8cccd1ad230edU, 0x42eef3ff1d26fc03U,
  0x180c090201c8031cU, 0x543fabf787c10c25U, 0x4b71d12f820f7dcU, 0xc3cbc84df658fdf9U,
  0xb24b2a2fa2fae050U, 0x2ae722290eab2c81U, 0x709c91005ede9d9U, 0x4de3171ebffcf0c2U,
  0xfee20ad4ed01fdd0U, 0x1026d0d8fa12f108U, 0xeb02fbed0421631fU, 0xed81a1211ccee30U,
  0xee05e5aaffedcf05U, 0x6cd2111e6ff0703U, 0xf81405cd130c2a00U, 0x24fcbffe10130a01U,
  0xceddf2eae4feb4f7U, 0x1f8c3f0c715c6feU, 0xceb704f236050e27U, 0xd9da10fffcf60df7U,
  0xd9f192d2be1acce6U, 0xf2f92708e5070bdfU, 0x27cadfbdf4db07faU, 0x16cff0fc0009c4e6U,
  0xf60c0ef113e7f311U, 0x21f4e308b6d5dc23U, 0xdbc72128f921c3efU, 0xb9d30b1806fe0e2fU,
  0xc2e8cfe1eb06de0eU, 0x27054df013c21ee5U, 0x28cef8df3a2bc10bU, 0x52c80709bd03f1e2U,
  0xd71ef50f011605edU, 0x1b0d42d203efc4f8U, 0x9fa29cddf28f105U, 0x3308bfe6db0f07f4U,
  0xf0c3d1c9a0e3e105U, 0xdefee810c42210e8U, 0xece4ced5d1d91710U, 0xfef1dd0a16b8f315U,
  0xeaf9e815ff07f50cU, 0xf3ef3015fdfcbdd3U, 0xeaf00eedfcf7eaf8U, 0xda35fe0200d5e1ecU,
  0xc1b6a6fdddd7ebeaU, 0xf3e3e0e1d4f4f3c8U, 0xff310c3da1e0d09U, 0xefea0fe92b2cf2f9U,
  0xf61bd01c082cfe0bU, 0xf0d93931110bf217U, 0xed08eafeed30abe5U, 0x5124fafdf5e017caU,
  0xe2d9cbe23913f1f0U, 0x87800f5fd1e0045U, 0x30bb02da1d42d71eU, 0xff100e3506e10019U,
  0xf80213190ffc1b1dU, 0xf0d5eb0a1f00fdf3U, 0x15f210f40c00eaf3U, 0x2b04e52c09fe104eU,
  0xeef329fd091ae403U, 0x6fd1204140b2009U, 0x71c17fadff3dc1fU, 0x34fb12421de8fe21U,
  0xdff01b1f0de80e46U, 0xf8e000fc14de03edU, 0xf917fff014c7ffdeU, 0x1de9fdf902fffcc2U,
  0x4e133d60c28ec16U, 0xec0f13e81a160326U, 0xf22013fad305f510U, 0xefe3e60b040d14feU,
  0xe00cdc0803053fecU, 0x1818f2fcd0fcfad2U, 0x8e54dcd13011ce3U, 0x1be9ddf8fa2b35f0U,
  0x24f104c1171105fdU, 0x33b0d02fd0b190eU, 0xe8f8eadde6fd1510U, 0x9f5111df6fc191cU,
  0xcdf90120d1f2191eU, 0xddc31b0609f71ff7U, 0xe0ef09ff41f5fe30U, 0x17e6e0eb02f204fcU,
  0xf007400d2b36f608U, 0xcc16e9cdeffce215U, 0xef9f9e40212e419U, 0xef00070f1321ecf6U,
  0xeef2eaf2071df507U, 0xf9e4142c04f1f503U, 0x6f716e324ed341dU, 0x32c5eb2a05ec0796U,
  0xeaf724ae272def06U, 0xf5342d0adc20ff2cU, 0xf2fe09eeca3e083dU, 0x1dc60b1af70ffde3U,
  0xf408c5f2e8f70833U, 0x1d3f0e20efe2d9d5U, 0xdf64cd920f93ee5U, 0x6d7e4f7e24134a4U,
  0x13c7dec0192f0e32U, 0x627d013f2e90c22U, 0xd0e2f8c7e31d22fcU, 0x31f7040bc6f1ee0dU,
  0xeaeafb31f212ee1eU, 0xe7df3517e50211feU, 0xe1e7de1b151ae718U, 0xf9fbf722e4ee06f4U,
  0xd4f5150f10240528U, 0xee0405d8d2ecf61aU, 0x160d18edda1aff1dU, 0x16ff28fb0234fae8U,
  0xbf1eef712040228U, 0x4ed0431d7ffdcf6U, 0x8eb16071cff22fdU, 0x1af0fa2bf716f7a1U,
  0xecaf09d8290107fdU, 0xf140bffaae51906U, 0x2f5f5dbf631eedaU, 0x2be62318befdfdd1U,
  0xeff1e0ee02f00124U, 0xf2b1e17f2dabb09U, 0xef044ed002fbf9d5U, 0xfef31000f24df481U,
  0x69bf4ae14fd0d25U, 0xeef2cffcbafafe1fU, 0xf0fdf1e5e914eed3U, 0x12d2391cb7e0f40cU,
  0x111e18e1e80cc200U, 0xf4e90bed02cbf620U, 0x1306e1078af9180eU, 0x9db3336ff0ff9ccU,
  0xf43deaf4bde40314U, 0xf2181c1deb0c131eU, 0x2121012ad8e207fdU, 0x5d10bd70a06f3f6U,
  0xc9e4cdfbf301e500U, 0x4db0fe124ef25b7U, 0x1014eff10ff00a34U, 0xf508230edb06f7bfU,
  0xf60306f1e0f0f1f6U, 0xfe1b0f19fbdbd6f9U, 0xd1be3fc06fa2604U, 0xf4ebc2c5f5fad302U,
  0xbaacf032ffd531dbU, 0xf30024031907ffbeU, 0xe6fa19e139000c36U, 0xd2e807e4dff80313U,
  0xf202051d2114d4fcU, 0xdde8ded440d4beefU, 0xe5f4c70dc1ca17d1U, 0xf739cee21109f7f8U,
  0x3435fed8081bb524U, 0xf1e6b60ef306f01aU, 0x260df319bd18e2e8U, 0x4ee9fd130bd52feeU,
  0xb31a09ccb6f21c1aU, 0xb3a0dd8f0fb1d0cU, 0x3cddf5f2070f12faU, 0x26cb3547e6e7f3faU,
  0xe310ab11210cf009U, 0xfc141bee14283bc1U, 0x15010126e2090c34U, 0x2820dd04f51e2c09U,
  0xde234e9d7f40de8U, 0xeb58dbebf342da52U, 0xc9193bf9d4f511fbU, 0xbd9f8131ee4e5edU,
  0xcedebe53c809eef2U, 0x2a214333372b2ee0U, 0xe0a2e0dd8fc21ecU, 0xd81d41f8f22613d3U,
  0x1721f90911eed100U, 0xe2e225e41214ddf4U, 0xf30df421d5eb20fdU, 0x1de604e13cf1f218U,
  0xfc0b1fbb142691f2U, 0xfed2e2f1ba11fc33U, 0xf5ff810cdc56ece5U, 0x17a5ee08feaa11fcU,
  0xdcd8010492020ceaU, 0xf22f30f912e71dd6U, 0x2d0c1a00e932eaf0U, 0x1a0d324f06e4f5dfU,
  0xeee80703e423bb08U, 0xff1614fdf3f9250cU, 0xfb10bb06eb3bfdfeU, 0x906f8e90df41c43U,
  0x1f01811d8e503eeU, 0x1109fa10eef60433U, 0xe91d06140120f0e9U, 0x24d702052bf5f3e6U,
  0xd8c31d470007cec5U, 0xcf00420afefb0400U, 0xd3100cedee25fd01U, 0xe6141af728231c09U,
  0xf23dadad2f5f513U, 0xede3ce0cf8fcfe28U, 0xddde05e2e4d7efdeU, 0xffd0fca63221d1fdU,
  0x2d29edb8f0130c01U, 0xdf00fb16f5cbf82eU, 0x29f900f5063ed5ffU, 0xe109ff36f005f89dU,
  0xe9ece1e9ee1b1c1cU, 0xf5e6fb1a01f2defcU, 0x30f9d5c4d620fd04U, 0xdd03f923afde2ee1U,
  0xe217f0cf0af210f4U, 0xa4b0ef02f5f8d9f4U, 0xded3e71012f5f1dcU, 0xce13d323ffc41eb3U,
  0x1a2e1cd0b2002c1U, 0xf63d22d91215cff4U, 0x34bcfab481ea1c18U, 0xd52af5d3ae19dff2U,
  0x17e0eccdee23d7c1U, 0xf9fcf5e9d504c202U, 0xfae8d5000a17ccfaU, 0xf0e1e1424f0f916U,
  0x5b035bfeb0906e2U, 0xcf3814f3fd14cb22U, 0x10ac02a1cd242902U, 0xc1edee0cddeaf2faU,
  0x813ec14f60bf039U, 0x100b0d2c07100a05U, 0xb12f505ba16dff6U, 0x2a0f1d1d0dea0ae7U,
  0x11fa2a4201fb2106U, 0xfb10e5151c1e08feU, 0xdd0f06fcd61a311aU, 0xdeb3022f9da0018U,
  0x325e713081ce724U, 0x1911e10112f71621U, 0xfeeef3ecbbebfcdeU, 0xfb23e30cf9d10e0fU,
  0xfa054d7bf808f6ecU, 0x42710ee100307c2U, 0x40c12fabe21031fU, 0xd935343efcec0802U,
  0x7011debe226c6e9U, 0xff4facbd91628fdU, 0xce301daceee0b04U, 0x211fb0b1506fb4bU,
  0xf0e0e4808140822U, 0xcf16110608dbd0f5U, 0xfde703e5cc120e1aU, 0xc1c213f05150a1aU,
  0xf4eaf3f4010615d0U, 0x180aef0b100d09f6U, 0xffe5dae1badbfdffU, 0x22f0adae7e70924U,
  0x16110efb27050c0dU, 0xeffd00503e1eb26U, 0xfb020a09fa0a1df1U, 0xe2a9effd14fc1a04U,
  0xfaebe80018eb2beeU, 0xe210e0621280116U, 0x12e0f00794bdd10eU, 0x51cf9ebe804f40eU,
  0x243c363ae912f2e5U, 0xe8e2011a13c9140dU, 0x11f0af8cf2bf701U, 0xfdbb1fff1e0b0908U,
  0xded03ed08ca18f4U, 0x1901eb0a0b230f11U, 0x21f9fef8a5bfd602U, 0xd202eb1c0107e947U,
  0xf61f421910f3f1eaU, 0xfcdcf40b15e8e6dbU, 0x1512f606edebed05U, 0x17c4f52d2c18f9f2U,
  0x6ebd5c0faec0217U, 0xdd18ebe5d8dffc1eU, 0xf3fef112c617040dU, 0xd7ba1c2cf8151dbcU,
  0xf30e24130e270bf0U, 0xf0ed2a12050a14ddU, 0x162a09f2e927ff05U, 0xfbf1f934eb21ec03U,
  0x1015ede900e80d20U, 0xc5dbbd00efbd2c1dU, 0x1fd3f1f496d7f614U, 0xaf12d43a11f2f7efU,
  0x1608163325ee18d3U, 0xf9021ee934baf6dbU, 0x2421d634ca19c5efU, 0xcccd0edb1e1af8edU,
  0x2fe114f40ffd0bc7U, 0xf6e8f3feecd81526U, 0x1f1c0a01ecf0b509U, 0xf507ec220903e3feU,
  0xd5fe31291cf52513U, 0xe014eef63296d2c2U, 0xf1ac70f992cfa05U, 0xc898fdd8e8f3f0fcU,
  0x5fbb8f9e0d20e06U, 0x19f3fafa19dfddf7U, 0x210915d2bae0f9feU, 0xe80f02fc1c162422U,
  0x1b0c15e8140c0524U, 0xe61605ff0bdc3d27U, 0xf1f6d019abd4fac9U, 0x29df0f17d0eddde5U,
  0x1122f40fefe7f537U, 0x11efd9090c060dedU, 0x10b02f8c5c6f6f1U, 0x1fd8e5f8ee1fde62U,
  0x340a1f0849d3000fU, 0xea1f32f42f120e3fU, 0x17fed21c0242e8c4U, 0x69ee80a30e60ef0U,
  0x2a020211f21eef11U, 0xfdd1d70108fe262dU, 0x1eeff5d0cb13d521U, 0x24e92a1df6efdf2bU,
  0xec2529215fd6012cU, 0xefedd8141524b514U, 0x16d9dbf5ea0de20cU, 0xe3e2dd0803e61623U,
  0xd1cc8d9010cfafeU, 0x27fb9d38dbe9dfe7U, 0x10b2514fec127d5U, 0xdf6e0e2f1420a41U,
  0xfc020d02d5e92015U, 0xf4fa01fff41d2226U, 0x13120c35d31afcc1U, 0x4cfaf11a37031df4U,
  0xec2e043e7dd3518U, 0x3120b51d09f6f9d9U, 0xf9ec25fa1a07081aU, 0xe2fe0d29e8f8047fU,
  0xeee415ef0003de18U, 0xd80135ed11df0bf9U, 0x2202e0fc1630c3d8U, 0x3916ca251418e3ebU,
  0xd0c3fd2603d74305U, 0xfcf6fde72d1d04dbU, 0xd702fdd30ac80a29U, 0xf1a1db0dbeac847U,
  0x251742f717e7fedfU, 0x1bd8f9fe0aebe7e7U, 0xf0f4b1292447f0d0U, 0xfc0ad91c0307ed00U,
  0x13feec0503d702U, 0xaeffc92003f0e3f1U, 0xa08ec1612c4e239U, 0x11f20afa23fcf4e8U,
  0xf14ecb130713ebe6U, 0xce4e304b7d60e18U, 0xdbeeead7303e1dd8U, 0x49f413dff1e0faeeU,
  0x16f601dcfa08f1cdU, 0xa0e7f819d5edf323U, 0xf9f3f10603f0fde3U, 0xefb743ea00df210aU,
  0x319d3e603fe12d6U, 0xfaede2f2d5cfdad5U, 0xfce7e0f2ea2213ebU, 0xd5eee2e69b12e7f4U,
  0x230803dc29f41210U, 0xbdf7033622fe0f10U, 0xf10501170100f427U, 0x12d31f1411b63bf1U,
  0xd41abfc8d4000bd1U, 0xfa060bf4de271ed7U, 0x12e105bec50810eaU, 0x2b2c1350f30ce7e3U,
  0x40fc17c5ff10b301U, 0xca21b20ae7d7c516U, 0x17fafb0cc4f6e0efU, 0xdd20616101cd903U,
  0x2cfadb13d90b26f7U, 0x1bd20c29d6f01da2U, 0x1c4b4d554f926ccU, 0x2f05210cf794151cU,
  0x46f606bedc10b5ebU, 0xb4fa991dc3e3ee08U, 0xf5f7f1f6b405d2c5U, 0xebac1df8072110f5U,
  0x1c11ecf0c42910fdU, 0x4c90807f1eff6bbU, 0x22bacad523d00dffU, 0xd6181005dda5f806U,
  0x1f2b1bcbeb00811aU, 0xdef9cef9e60a3013U, 0x1207c224d810b44aU, 0x11bae1290beefdcdU,
  0xe2f5dc1ab63707fcU, 0xf80b4d0ff445e815U, 0x36e420e1bf1bfb04U, 0x163b4204dddae1U,
  0x1bf6fd1decf115c2U, 0xf00300d41e0de3f3U, 0x370320e2c911ffdfU, 0x28d10bde1bdfdfU,
  0x281aaae06fcf1b02U, 0xf2d2d4100906c18fU, 0xe0e5db28e0cef906U, 0xd3d4ef1026cc3636U,
  0xc070807e7ffe8f0U, 0xd504aaef10f0e609U, 0xfb22370ed308d8f4U, 0xf713fc0f0825d61aU,
  0x2cdfc401fdf81a07U, 0xf60bc80ee2fcdd8dU, 0xf9eff319d9d00eedU, 0xb00926d609c04034U,
  0x526ff0d0702010bU, 0xf5d900fb6c0cf9ddU, 0xff151305ed0dc20cU, 0xfa1fc20b020aea23U,
  0xf3e9e3dadc090a1eU, 0xfa301d10d424e9eaU, 0x27dffce70e110023U, 0xf04e201017eef719U,
  0xedf30de9f3f8f8f5U, 0x7f8e3071cfdf5fdU, 0x180e0ef4f2f4ea24U, 0x1d0d21e30ae20517U,
  0xe4f31ec903e210e4U, 0x1420cd12e5fafc0aU, 0xdb180ff10421fb01U, 0xfad70be6fe08ee11U,
  0x612facf04eb0219U, 0x1bf6f41819f015e0U, 0xef7f1cee5f2faf0U, 0x1ee60bf8e8e2f21dU,
  0xf01632e8edefe5edU, 0xffcd40df2e1150cU, 0x131fa03060cfe25U, 0x11b3f9ef09040000U,
  0xeffcf00aeae60a10U, 0x130afaeaf71afef4U, 0xdf41adaf604143cU, 0x2f60d24df1cf136U,
  0x41521c0f012fc0bU, 0xf2e232e70def15fcU, 0xe230bfb08e0061bU, 0x8e3eafffb00fae7U,
  0xf402d9061102e6U, 0xf2d58100f9e904f6U, 0x1514f1e00bed09f1U, 0xfad5180115e2eae3U,
  0xeecf1b16d2f207c4U, 0x13fcdd1ab311fdfcU, 0xf40e09dfd30e13f8U, 0xf016dee011f6f6f5U,
  0xf31ee9d80a04e514U, 0xfdeab8f6e0f5f401U, 0xd19f1c608e3fdd7U, 0xed730e913f4f9edU,
  0xf6f4fbf7dbd6f3e1U, 0x13009cffbf121be3U, 0xf6fc2100da001d19U, 0xec02cfdd190e0114U,
  0x813e1161c0df508U, 0x23f3e6fff2f00a00U, 0x1914e9cd14e5f90dU, 0x1027f72bf51cfd03U,
  0xf613e2f2fb04f0feU, 0x815270cbf31fa13U, 0x141d41fc14e8021fU, 0x1302d1d8260501f8U,
  0x1905eff6eefde3ebU, 0xd7149f150803e211U, 0xfcee2110d6ed0fe5U, 0xeb01fe11262200e2U,
  0xfef5b902e81911f8U, 0x1cafbab180bbeU, 0xbf8e9e0c8022a12U, 0xed3416f20208e804U,
  0x130dfa06f50dfc04U, 0xe51dc104f606df05U, 0xdea2817dccc12f2U, 0xe1ed2d0ef30502baU,
  0x16f9b508f6d8f1feU, 0xfafbb115fff11bbdU, 0x19eaecfce8e1f7fbU, 0xdc37fa060b2c0202U,
  0xfa2805270be7152bU, 0x1402df2b10231806U, 0x60431f2d4d8e210U, 0x6dbf61adc0fd8e5U,
  0x38fcdae623f6f0fbU, 0x12fde7f4f610f7f2U, 0xff05171f27d8ef2fU, 0x12c918d63e2617f2U,
  0xadb52b23d1d70f37U, 0xc0ad19dde53e222eU, 0x2dc8bbc1c6ac09dcU, 0x35c4ce2e34f4add6U,
  0x31e6380916a8cbf8U, 0xd1b6061e4a3620acU, 0xd2f5b992240b35a6U, 0xf1b1b23b32e305abU,
  0x37b200d81930c843U, 0x1eb6be3bce1a2fe8U, 0xcd9609b4ec38c509U, 0x23a82881f91b0350U,
  0xcec1083b9703c13eU, 0xfd23a09ba223ab21U, 0xd6f02ae12a24d72dU, 0x9d32af9f063ed81aU,
  0xf04f10703dad927U, 0x18b6beba02f127ecU, 0xad7a245a6370ba3U, 0x5d7f1f0ded72afaU,
  0xe43b233f2aeddd94U, 0xeb919990cdd41feU, 0xfcf534afc803aa30U, 0xdea5c7b1e496c2c9U,
  0xcedee1d2192fe5b2U, 0x1103bc18e0a4c2f8U, 0xb5e2b8bae32fbee6U, 0xbd40c73a2e1f3120U,
  0x1b51cfafc0e71923U, 0xb720fdc8360facfdU, 0x95ab3c1906fcfc01U, 0xc8be0317a6b9b61aU,
  0x3b19feaa142db5deU, 0xde2fcab41eef44d8U, 0x9e2fdb1e090422e0U, 0xf1a32ddfc912c1f0U,
  0x3ca3fb073218c3afU, 0xb4361db515a12600U, 0x9dc9b904b601eeb1U, 0xd747ef0fc1b03ce3U,
  0xd9322c140650e942U, 0xd811499dc0fe3bbfU, 0x5bae340ddbdd0f7U, 0xe407be820ae3a8efU,
  0xdb28ebc9f4fabb91U, 0x32d895ae13cd1219U, 0xc8031a9ff1042424U, 0x8a0831c82ebe9b04U,
  0xa8b20c549ebe2e09U, 0xca0210e9a9ddc2c0U, 0xc939f9280ef50548U, 0x24535646261c4eabU,
  0xefc2fbc03fdbadcbU, 0x26cb353ab32cffe2U, 0x42d53ad6cebfde48U, 0xf64d3da3030a45b8U,
  0xa3e0891229e3df16U, 0xa0d4c50ee4fe3b0aU, 0x2610b1f7f1b5f6d4U, 0xcef81afad7f22000U,
  0xbde1dce6b6b0a9c6U, 0xa50ff5baa51231c4U, 0x1fefe53ab32d3fc2U, 0xe3b302c425f2faafU,
  0xd3f71bfed1c9d3fcU, 0xe4ebfd2413fa03f9U, 0xfe2faa45f5aa14d9U, 0xb1cfcac53f49b241U,
  0xb7b712cf36beced2U, 0xa252aa2e20bb33cfU, 0xb1aed2e82ddf2727U, 0x2dafeb381d1a2ca7U,
  0xe0fc01efe00fd834U, 0x16b8c1e30ae92ef7U, 0xd61cc7b0e1e6e818U, 0x4306ffd6fef2e91cU,
  0x4e2dd26d7ebdc2dU, 0xaf509f1d20334ffU, 0xd60dba1af6130bfaU, 0xeefbfb351af8e627U,
  0xef02f306ec03fa09U, 0x919e5e7e818000cU, 0xe7e90fc8e7d81213U, 0x30281004df27f5e9U,
  0x15f5a0052813dc19U, 0x1ff11090b031b06U, 0xd1fbe5dfd822fbf7U, 0xe09ec3bec1a0f2eU,
  0x1a0004e20610ef06U, 0xf91810faf522fa1fU, 0xe7f83d14fa07ec07U, 0x2af8ee03ea0af2ccU,
  0x1d0a88de072af024U, 0xfcda1cf623e0f7f7U, 0xebfefdf7dd160206U, 0xea1c0d1aeffd2312U,
  0xd5e30602f2eebc07U, 0x1ebdf5e4e7ebd7fcU, 0xed16f1bfd70d0fe3U, 0x18d003c40df1e430U,
  0xeccc1fedeceeff2fU, 0x1f06f8129b0708eaU, 0xd81fd40cec1a1e07U, 0x33de2f44e6dcdf20U,
  0xebfbde17e127c215U, 0x724dcf3e81af30aU, 0xe6e900eaf20be6f4U, 0x12e3f712e510e6c8U,
  0xae1dee93af0f041U, 0xf1ec110ae7020fddU, 0xf40fff14fc2ffbf8U, 0x13003e7fdbece925U,
  0xededfb05e21ad3f7U, 0xfb21ef01112215faU, 0xfdfc2244f311f107U, 0x531c318fc0df7e5U,
  0x191cb7eb263fed32U, 0x11140f52eecdaf4U, 0x200d14210217f242U, 0x10ec184a0b440703U,
  0xd5f1081816effbe8U, 0xedee2ad2000ff303U, 0xef1f0d211dea0febU, 0xfce9fcf616061337U,
  0x7e51f10e9e80b15U, 0x1c0bd42bca120be0U, 0x1111fc816111eU, 0x404222df2bcf30eU,
  0xffe5e7071e15f9f8U, 0xfb2b06d604091507U, 0xf5eae5f7f50a01e6U, 0xdafc10f6f8eaede5U,
  0xfdd4f90f25ffde1fU, 0xf1e3eb1a13e709d4U, 0xfae81a1f9834def7U, 0xeb002f5a0203ece9U,
  0xdedffa0f01001de7U, 0xf01027cb2605fdebU, 0xe0e10000112208fdU, 0x70ff1fc040efaebU,
  0x4fcce151623df21U, 0xfc27eb080005cc1bU, 0x12fbf2ebf703e0f7U, 0x2fbf121fb0108eaU,
  0xd907bd11eb0aece8U, 0x3c25f384141e04e5U, 0xe11455e2f704080bU, 0xb1b43aade064addU,
  0x20fbf06aef041912U, 0x1cfbc30322dae8e0U, 0xd9e6f6fb75041a13U, 0xdee0042cdf000e00U,
  0xf634bae4f404fe07U, 0x35f2b3aa150c2ed3U, 0xe1f43805081905fcU, 0xd80d1bbc0cf42bfcU,
  0xf9dc082ee6111b21U, 0xf716ebea01cbd8deU, 0xd3010cdd070c05feU, 0xdde7e60dd620dce4U,
  0xef05ece2ff120a1fU, 0x9e123c3040525c0U, 0x315f8dbff0005f2U, 0x18fa1aad11cb110fU,
  0xd8f8cd34ded8e5faU, 0xe94f15e723f6f110U, 0x8ec31e12dfc0538U, 0xedf610f8e933e2dbU,
  0xe63bd4dae7f6f122U, 0x220218e7fc1e15f0U, 0xff013a33c3c50102U, 0x1e0a15ec1528129bU,
  0x3126fd25ede3fc4eU, 0xce3e506031c25ecU, 0xed1efd1eccf2f807U, 0xf5edf3310b030bfdU,
  0xe92dd7ea101e14f8U, 0x3c00dacc252608c1U, 0xfbfefb16e4effae6U, 0x4111218000b1903U,
  0xea251af613fbeb33U, 0xde3623cdf0f9c72bU, 0x28ef420188e21819U, 0xdd0ffe3202eb1103U,
  0xde0afe2f12ef0f01U, 0xf2defaac3b1519c2U, 0x2b1609f9ecf92211U, 0xf0ef27e8f2e9e21aU,
  0xf4060bf10cf4d500U, 0xf41e3dbe0ddeee06U, 0x2c010029a2d6f24cU, 0xfcf8fffbdb01ea0dU,
  0xfbdd39f506fcdec8U, 0xf2ecea18f5c40e1cU, 0xe4e7c007d9a51621U, 0x8271b201e0e0207U,
  0x1c4ef3f40701014fU, 0xd903c907f205cde9U, 0xfbfec61890bbe3e0U, 0x1ede07171c15dfe9U,
  0xf1086eed18ecb9e2U, 0x2c5180302dcf001U, 0xe4e394e2f40a41ecU, 0xdbce112f22f62d07U,
  0xfb3d010e284ed015U, 0xf211d4f71df7cf05U, 0xe820f41c81cbe631U, 0xdc07e8ea05feeffeU,
  0x38ea64f717c4c0e6U, 0xf2fd374807c00a37U, 0x1c0f9608a1df18e9U, 0x11b612304ffcd267U,
  0xc90d31024221bcfbU, 0xe263ebf635c7f80fU, 0x51a33fbca08f13eU, 0x50eafae7cc05f7ffU,
  0x6eecfcefdd4e3d9U, 0xd4defaeaf3e2f3ddU, 0xbe2e02b224fde1cdU, 0x27de39b0fcbcdc32U,
  0xd10ec819c8e910b8U, 0x62dbc21fecbef19U, 0x1b1428f6f7eb31ceU, 0xd40414e2be0708f3U,
  0x17f6e31bccc30d0fU, 0xac109d812c2edd5U, 0xa5c3b30206fdd7dfU, 0x2c1e2bbecd12da2U,
  0x1be1ed3ee912d1bbU, 0xdccaff281ee00ce7U, 0x15b5d1b9bd0224e9U, 0xc9134de2caa819ffU,
  0xddc0b4e9e114aef6U, 0xefcea0e04f4ddd9U, 0xd8fad6d2ef18d1d2U, 0xc9e0e11ced1febb6U,
  0xb15370b11e6200aU, 0xd50cc4d9c029e91bU, 0xd9accab7feeaf2a6U, 0xe0d1d7cab3fcee19U,
  0x1a0ab4f1e7dbfa2bU, 0x1533120edac8d419U, 0xbdc535200902e435U, 0xac1312add5a7369fU,
  0x2c2e3fbc5edb9f2U, 0xdfa6fadfec133cc2U, 0xe625ca24eaedee2aU, 0xc3cb3bf61c012325U,
  0xe3c8a035bbdd0810U, 0x61c34f4e426cbcaU, 0xe02d9b12b4dc05c9U, 0xb217e8e1b9c3e4efU,
  0x2fbe2ecd0f5ce0bU, 0xd608d6d018e30fdeU, 0xcf25f72e24d60e09U, 0xd2c49fccfffbe1f0U,
  0xc81dc92afdb817deU, 0xe6cab1e3b1c71130U, 0xd3e11bd0be1de613U, 0x3d9ed1717d9a7e7U,
  0xef3901c0f6c103ccU, 0xd027ea03bb0207a6U, 0xd346f7eee3cfffb4U, 0xf20cd039ecec28e5U,
  0xe81bce14dc14c5cbU, 0x2d230c11eef4f9ddU, 0xe2b3c0ecafb7fe1dU, 0xbdee0dc1a3608dbU,
  0xdc01f80e01e0efdfU, 0xc4dffbe411e721c3U, 0x21cedcc523eff9e1U, 0x17ec3cef08d7c41cU,
  0xbfd7b5eef0dae7a9U, 0xfc21ffedfd16fe06U, 0xbcefeea1d0beb004U, 0xb3bebfdfdea614c1U,
  0x19f1f0fa2ec3bfbcU, 0xc2f0dbbacafadeb6U, 0xc7fed8e0c71ed9d5U, 0xd2c2d381e3ebdfe7U,
  0xc218d005d6e73ba0U, 0xefd31a23f4efd6fdU, 0x2f19c8b11a1ab034U, 0x5301adab80c17e6U,
  0xe8defa2f3bfe02fdU, 0xb9cff8f3ff2dce04U, 0xdc30bfcabe25dfe1U, 0xcce3f901cfc4fc06U,
  0xe1e518130dde1f01U, 0xec1718eb2a19f9edU, 0xd618f2d3a40bf1U, 0xef100d16e60de323U,
  0x17f4cd0829cdd2fcU, 0xfe0de5fe25e3e5f3U, 0x3f815db1be8e90aU, 0x381c924f4240609U,
  0x1603070d07c42807U, 0xfdfee50b010cec02U, 0x15dc29fef7a00a02U, 0xd11f71ed115c308U,
  0x1df9eaf32ddbd507U, 0xe6fdf9dc17cd11eeU, 0x1ff6fe01e1d5ed0aU, 0xfca1da14052914e3U,
  0x2c1722de0b08ec18U, 0x613de1b0b25fd1dU, 0xf5ee1616f205efd2U, 0x22df092ff51fe1fbU,
  0xfae1cb221cf9d71cU, 0xe7fceef314ecfb2cU, 0xfaeae90ea3ccc605U, 0xf8dd110901021406U,
  0xd9eb05090ee9e51cU, 0x4de1000f01605e0U, 0xf70dce0a0dd50104U, 0xfffaf2191618f552U,
  0xe070c12ffeffb00U, 0xf60cede310ccfddbU, 0x9fe1b1700decce6U, 0x25c304f4030ff1dfU,
  0xece9fe02f9c4cc15U, 0x1bda04dd01140be7U, 0xcfd082a2fc20022U, 0x4ffe902dcffc728U,
  0xfe003d21240409f9U, 0xc6f313ca33bd0afbU, 0x25fc2c11c2eabcd9U, 0x1bf0c7dfde03d701U,
  0x11f2ece2e1d6bb20U, 0x16d3d9e7d901050dU, 0x9fed4182c0004f3U, 0xcfdd92ef407db03U,
  0xdc051304f827f419U, 0xdaf801e235f1190cU, 0x218fcfbdeded60bU, 0x34ffe6c6e721f3e8U,
  0x1ea4723d2212eU, 0xf7eef127fbf201fdU, 0x1f51401dccd3a03U, 0x2a17062906052b0cU,
  0xeef2f6f016e20118U, 0xf525da01f4041929U, 0xd6f30600d004dcb8U, 0x2af2251fee09dbdaU,
  0xdf2ed2b19bbd707U, 0x4ea05240c171beaU, 0x2a0a1fe713d63210U, 0xe141a1ffdfb0034U,
  0xe4f83d0419ee261dU, 0xfb08daf812db0804U, 0xca201f21e0ffabc4U, 0x241300dbfe07f316U,
  0xfc17fe0923e4ea08U, 0x3d21410fdfe1317U, 0x220dfcdbf90c3705U, 0xaf6191b02dee211U,
  0xcd0623f70de51c11U, 0xde2cc7ede5ecf321U, 0xde10061bca0accdeU, 0x7d41fe4f8f5180cU,
  0xae80ed5d4f3c8e1U, 0x140506bfd0f2e0f9U, 0xf71e04f7fff510d8U, 0x8c303f6110df129U,
  0xec08041502fffe00U, 0x2cdf5f6efd71f06U, 0xe9df9bec4a0304afU, 0x3adf0a0feafebbfbU,
  0xf5d5f4e2db1bc1e1U, 0xafee50ac4f9beeaU, 0xdc0a0dff1218f8ddU, 0xcaa401f9f9f50207U,
  0xe8e32df904f21deaU, 0x23a90626d5e62bf6U, 0xf9edb7f6433916bdU, 0xdff3020aedfbef05U,
  0xfa06fcc0c8f3ef0fU, 0x7f9d5f801d9d804U, 0xfb1104fc0912f5baU, 0xf8bb00f5111911ecU,
  0xd8fbe82fe305fef5U, 0x12d2fc05fbc726f2U, 0xceefb2c50ff908d8U, 0xf2ed2746d216e7fdU,
  0x16d4f11dcae2d5eaU, 0x2f0632c5f3112108U, 0xe0fb49fc07ebeefbU, 0x211c7d7ef3def22U,
  0xfc25ecfee6fbf348U, 0xfbda371602e90ab9U, 0xebc3d8170bdffed1U, 0x430b1f33f8ccde2fU,
  0xf2e50404a2fedab7U, 0x101901b7dff7090fU, 0xe7f914f61215e6f1U, 0x405eff5ebf20510U,
  0xf72ef52b10f60b2dU, 0xf0c3200cf7fc0681U, 0x11e8e70a12fc19fbU, 0xcf242c30e9b6f926U,
  0xe809f7f1dc0cbd2fU, 0x16d9e1ed08d63c0dU, 0xf11a0c072003fddaU, 0x2ceaf1eb02f8e308U,
  0xec21ef3ad7eefce2U, 0xb1421fe06fb09e9U, 0xeeed10e5fdd9252bU, 0xea191f2d040aebfcU,
  0x1c070333f603d4efU, 0x1a1e1918f41805e2U, 0xf802174800cdf4e1U, 0x1c40c91bf50bee09U,
  0x1ee7f900e2f3103dU, 0xefa0f0e1409f704U, 0xfdfff817eef703e4U, 0x1bf3ef06eef81810U,
  0xf0fff30aea11da16U, 0x1e0507d3f50414e0U, 0x2160016f60516f5U, 0xed29fff4edf5ed04U,
  0x2e01222ff09f536U, 0x17cdf9fe1ef3d6ebU, 0x15072c29f0e81725U, 0xde35f01702f8f514U,
  0xe4180b051df4d924U, 0x11f021ed430d09d1U, 0x211acf04d3f51809U, 0xef5ebf505d3fedaU,
  0x1dfef82f3310eeddU, 0x192af0f5fdfad226U, 0xc380549030d43U, 0xd915ed0ffd33060cU,
  0xc9c8b150c919031cU, 0x31332eeafc01fca7U, 0xc70b6cdc05e01e01U, 0x2522ea03f85b0d00U,
  0xf804f8faf9f6f8deU, 0xbed742cf201e1623U, 0xcee1e9d50824f7e7U, 0x15da7f1f17cd15ffU,
  0xd30bd3ddac33bd0dU, 0xbc54f28d3ead7caU, 0xce070cea460e5f09U, 0x35da0bc4fe0c5136U,
  0xd628e8e6df12ee19U, 0x191bb321fa4a2315U, 0xcbfbe8e42636ffd2U, 0x21db4d32e7cbeaf9U,
  0xd3deddcbc6153e21U, 0xff004746eff3ece2U, 0xf40fece3ec2031f0U, 0x45e6d8b0d6d03febU,
  0xc141e707c914feffU, 0xd929edf40e53e81eU, 0xc2cd06d7141e1239U, 0x11c90f2d2f05d1eeU,
  0xe2caf646cefb2220U, 0x62c160005f8f802U, 0x13dc5aec14142f2eU, 0x21b06fc0b2f0fe0U,
  0xddd30cdc23d00435U, 0xd9fe26c91dea2266U, 0xfcebd1eb251de1daU, 0x29fa6ed118edf8cfU,
  0xdfeecd0ad0f915feU, 0xfbfd0f02e7e9c6f1U, 0xcdd1a0cfe180be2U, 0xe18f4391d2a1be8U,
  0xe9cde0fed2d72924U, 0xb14d40ce6102bfcU, 0xdbf9aeded8420b06U, 0x33d32fd70acbb8edU,
  0xe500a007e61c0213U, 0x23e53b0e1330e4ffU, 0xe8ecf6fbcbe8fdf4U, 0x47d413ebd4b035afU,
  0xede1cfecc11f824U, 0xfc1018ea523b1f51U, 0x1012be123f5f525U, 0x51b81bf6430ebecbU,
  0xe4dffd311dd436feU, 0x71bdaf617f9e2eeU, 0xef071bfbfd36f429U, 0xcf02b0c192fd6f5U,
  0xea916f32e1dea3fU, 0xf4c615164a121c39U, 0xede1dcc03af0d4e0U, 0xf1f2a0ce1c0dcecU,
  0x23fefb082611ec0bU, 0xf428e525d40cc410U, 0x3eedbf3d239cf1dU, 0xe4df5404e4f204feU,
  0xdfbff3de2433035bU, 0xf12df630fcd5f0f1U, 0xf4ded5e3fd3cc7d8U, 0xcfbdeeabe09bcfbU,
  0x92120e03cde152cU, 0x1c0e221817f14bfbU, 0xf5ddefdffefdea27U, 0xef2337fa04b51cefU,
  0x3aee42ffcf3e301U, 0xed38410f18d20a3aU, 0xee1110d2f7080b38U, 0x38dcf9a90d24caf8U,
  0x40c100be701fc39U, 0x3e160bd0fa23f1f6U, 0xebfa22f30e26f8ddU, 0x14d9010ceafa2ae9U,
  0x17eee829fe3c1909U, 0xefec0ef8211205U, 0xf6fc1506e9002d32U, 0xfb0e1b43f213ec05U,
  0xdbd3f0e81be6fe1dU, 0xeb12e2aa17f40dcdU, 0xff19f1dccffae7e7U, 0xe71e03c60fdf0d2bU,
  0xcefc39edf2e5c4U, 0x4d9deede1d1f026U, 0xe11bec11f0cb0a0aU, 0xefeb2b0d2006e8ebU,
  0xc2c6fc2af5e902e1U, 0xfbe0f7d124d703deU, 0xf51afd9be5fa0bf1U, 0x75906bffb26001cU,
  0xf9fd0d03fec117fcU, 0x30dc19eff30d1010U, 0xe9fed22721f2dfcbU, 0x2dde2429f525d825U,
  0x1122ebf70308c803U, 0xff2be2dc124a280cU, 0x10e613551f13e80bU, 0xdcfcbc24ff0b339bU,
  0x3823b223f741f2f0U, 0xdde336f1311a1201U, 0x32f33f1b81d02348U, 0xe918552e181937efU,
  0xdfff06ddf3effff9U, 0xe9c7c1acfff112dbU, 0x301e0f6f0f3c2beU, 0xff0adbac04f5ed17U,
  0x7eca009c7fceac8U, 0xdcf40d11f4c31ccbU, 0xdaefc60eebd604d5U, 0xf6f32cebf51edbfeU,
  0xe3db1104000601feU, 0xeb0fe02108fcee6U, 0x334d1abbcd114d3U, 0x1ff615ce1f0a0126U,
  0xfcce1cdb31bc0a16U, 0x38e3140ead1610d1U, 0xa60aa806491717efU, 0x23b03952c3ec143bU,
  0x2208ef20fe00e007U, 0x2104fe0dd1273efdU, 0x1a1704684c0dde3fU, 0xf4038c38e9e0fc97U,
  0xe4f7ec014637dbf6U, 0xf1ef62f6531313ebU, 0x5cfd580bf2210f22U, 0xa19343ff63f0beaU,
  0x6d71df7dbe5f9c7U, 0x17e6eaadeefdf1d9U, 0x1818f600d9f6e2fbU, 0xf2ebabe124f2d61bU,
  0x1ed9b10fee040900U, 0xfad9f2fc05bcd5edU, 0xe2fbfa1e09e020dcU, 0x15032840ecfc07f1U,
  0xf0ff35150a0d1015U, 0x1cd7c80f0bebca16U, 0x1b37da9fcbea13d7U, 0x3fcf1cfa10eaf142U,
  0x1aebe40c2311f91dU, 0x2ff7db1fcaffe8f7U, 0xc80eb71322fc1ee4U, 0xcf122480ff81319U,
  0xaebe313f0fbe0e9U, 0xed0dacf9fa230cedU, 0xeed7f82425df0e06U, 0xe6af14f72432262cU,
  0xf6dce7db3410bed3U, 0xceef24e3dc0effe4U, 0x21191bdb05e3e202U, 0xea2b4e31c403f7e6U,
  0xcdf19cc170ed0e3U, 0xfeedca10e1d8c115U, 0x4ea0af0d2f3d7d1U, 0xf80e17d8041416e8U,
  0x18bf81dc21f7fa0fU, 0xfcf0fe1bdf09030cU, 0xf8e900d50accf819U, 0xf8faecf4eb00feedU,
  0xe8f115ce261e15fbU, 0xd815cb06f5f1ea08U, 0x1dd413e3e9d82cbdU, 0x150045f2f9071121U,
  0x2eeeacbd1c0d0414U, 0x14f7b313dd0f04f7U, 0xc2dad2c230f615ecU, 0xf90408f2f3260713U,
  0x280cf61214f5d409U, 0x14140410102cc923U, 0xfcd5fc0cf033e706U, 0xffc2de82b1c4aU,
  0xecbf0db4422ee2feU, 0x11f05ceef016ef27U, 0xf4d519f4d4fde205U, 0x2efd50facec4f4f6U,
  0x31f5fddbfb1bc104U, 0xe6cff023000cb730U, 0xbe801d5baebc429U, 0x1ff5cb041be8eff2U,
  0xe6d224f3270a2c19U, 0x1f1e30ecd5ef0221U, 0xe4ef1cfefcef072eU, 0x30ee2f011bde0c01U,
  0x19f5eadd1c05f826U, 0xfccede19d9fbd906U, 0x271df2ccc8cfeafbU, 0x1640f4f3fe0b13dfU,
  0x28d7070cf2092e35U, 0xf42bcaf0d7f71ef2U, 0xd8080f07f70502f7U, 0x61be50d2f131a1cU,
  0xf90ce9f218f3b7f9U, 0x22d902e01a32f800U, 0x15f116fec927e706U, 0x2d0b020608fee5efU,
  0xf4f9f2f34023fc35U, 0x10102bfb2f0c221dU, 0xd818ff13baf2fd0fU, 0x7e3eee8f7e01e1eU,
  0x3fbf2c7ed0ba8ebU, 0x2c0301ec051fe5f5U, 0x14080cf7f4fef003U, 0x2fdbc8efcccc0bb1U,
  0xe7dc08fb2a0b0e1bU, 0xcc1212ebf01401fcU, 0xedfdfc0ea41e0706U, 0xe1f2fc27f2dff300U,
  0xf11df8ee0704f1faU, 0xf4f8e5f8fc100102U, 0xfa1c1ef6e3090bf8U, 0xf70fece7fbf2f2fcU,
  0xf00213320f201102U, 0xe7f2f218e105dbffU, 0x1f0909f9cf1517fbU, 0xeef50219e721251cU,
  0xd7c4ed15dc13d081U, 0xe5e8d2ced014dcf0U, 0xd4f2f7ee221118e1U, 0xc2f70fe3ec242717U,
  0xf100fdd704fe0aedU, 0x11a41bfd130df1deU, 0xf6c7dee6f9df13d6U, 0x704d5f8e1ebe0f8U,
  0xfef9f70ad52e0591U, 0xdf5f1f8d106e00eU, 0xfff80fe1181c1119U, 0xd91621e1f913203aU,
  0xf2db29c3edeb0b28U, 0x1fc60fed0906f9cbU, 0xf7edd6e548130ed8U, 0x13f2faf6e20ac509U,
  0x19f8082cfe174fc7U, 0x1831e5c64216fdd6U, 0x191554f5fb08030dU, 0xfd17d5eaee4dfe29U,
  0x102c08f3f60d103fU, 0x198bf90e11061bdcU, 0xd40c0bf51fc801f0U, 0x7f32e1500261a09U,
  0xf9ecf414be0fdb8dU, 0xfad9ff25dc030908U, 0xddf0ef0e200e1b03U, 0xc7fb03fdef081209U,
  0xe7040119cd1203feU, 0x59f1bfef7e8d8dbU, 0x2e6cffde5c8feefU, 0x10cdbe5e8feda00U,
  0xd1f6e012ef21cfa7U, 0xe5e7f3f2e90ffd05U, 0xf6fe1600051b010dU, 0xd30124d10105fc10U,
  0xe0e41613090b04eaU, 0x8cd1a050500edceU, 0x1fded8fe122007f7U, 0xf3f7e0d6eb10e804U,
  0xe3badb13bffd03dfU, 0x2deedaa8190a21f3U, 0x100ff9ec1a0c031fU, 0xe618f1d20ede0ff2U,
  0x70dfeeef409fa08U, 0xba415fa0511d0f9U, 0xebeee9fb35d8001dU, 0xdcde2cf70a22f615U,
  0x2af8fe15f0f308b7U, 0xf4121408ffe5040fU, 0xe1083dfb000ef9d9U, 0xd7372b13ed2a02fbU,
  0x13fded0eca020e2bU, 0xcbf1e2311fcffa7U, 0xfdd9bffa20d017daU, 0xe601b1c2c9dcf909U,
  0x2ea060c0822f0b4U, 0xebd620ddef0cdc0dU, 0xf3ede9e6040f0803U, 0x20718ee02cb0ff0U,
  0xf31202ca03190600U, 0xf9f62ff11a238ef2U, 0x29e8f9e71cf81c23U, 0xbf02dbdee9f8e0fbU,
  0xf3000de614f4f214U, 0xdcd70e1619ebf915U, 0x3032c4fdf4fcd6fcU, 0x372706e934a405e3U,
  0xed002917190b2aebU, 0x391cf83300c60eU, 0xf7031df935311b30U, 0xd6f72fe3f92ce507U,
  0x3191c1ad4e2f7edU, 0xe02f212ded08ef15U, 0x13fcec1652230743U, 0xcf0ef5221d24f015U,
  0xd1d1ab3001304cbU, 0xec1207123503fe0eU, 0xf61ce6dbe01be2d9U, 0x213806c2fc03c7daU,
  0xd060cd8e6e931f8U, 0xe300222af818fe20U, 0xd20bc6f20109f9ecU, 0xee2a0cfa18261405U,
  0x143511dbe42c0503U, 0xf05cd261106eff3U, 0xd9f1c7c2f21efffcU, 0x14bcfc9cf923dcf4U,
  0x612dae0eff241cbU, 0xe1095c270c3bea12U, 0xfd0cfcfa5206dee1U, 0xe3170f0cf3eb14fdU,
  0xf54d3681c80f120eU, 0x10ee1f030110d8f4U, 0xcbeb30dd0e0bddefU, 0xf5c9f8cdef4fdffdU,
  0x604f4f90019f4f4U, 0xbf1a3a15f9ffe310U, 0x29f0bfe9f71e0606U, 0xde8b321602c31ed6U,
  0x1cbd14bdf61b27c9U, 0x10193d17e3f4c617U, 0x391aedf40b1d0ae5U, 0xd3fdffbf27b20708U,
  0xa140ca5fe2119edU, 0x9dfa1a0fece6b73cU, 0x10feafcdb3dbf6d7U, 0xeab6f52713f0f4efU,
  0xaaa04ddaae926d4U, 0xf4020834d1e21205U, 0xea17eef11e110a19U, 0xdebfe6e8f1bcee02U,
  0x2003fcf522112ae9U, 0xca043724f6f2c51eU, 0x2d1e04d1ddfafa21U, 0x10fcec1b19cf03e2U,
  0x1f2ebead0083ef2U, 0xe7fa2deecde2f602U, 0x180330e82fff090dU, 0xdeddb7ab2a11fbf3U,
  0x2b01e7bcf316f7d9U, 0xd6aebcf42b162705U, 0xef1c7dfd922192bU, 0x6e5f708e824e3ddU,
  0x1218bcaae5d2eaccU, 0xfd1f240816f2d9f7U, 0x1c07e4163515f1f3U, 0xb811cfb116ea1203U,
  0x313b07c8321615ddU, 0xc6cbdc0936e6ef1bU, 0x2414fbadd6ccf31bU, 0x1324131709fbfbd2U,
  0xfbe8b7fdd9ecfbe2U, 0xf16f702e32b0326U, 0x2a0b0af3c3fb1cfbU, 0xf5f1d3de312a09f7U,
  0xe809fdf2040ee8ceU, 0xe1d9def63cfc00e1U, 0xb21cb8212cff412U, 0xf43d050bf9d2f2ecU,
  0x41babc0f6fb17faU, 0xdfe120f01c2cad0fU, 0xf5d72805daf0202eU, 0xd30c92b13318e7ffU,
  0xf39ed0e3b2807e3U, 0xd008a3ef260a14f0U, 0x5e413fa2a050c05U, 0xf2837dffd2917f6U,
  0xede7d1ff0bdf0df7U, 0x17ecf1d601072dd4U, 0x19e30bd1d10324e9U, 0x21e2f119dac91f06U,
  0xe9330d3845f802efU, 0xc8f9c7dfeaf83828U, 0x2ed60a122007eeccU, 0xedfa13241f0d0e22U,
  0x13f3e9d8fdef16a2U, 0x2213092e150828e7U, 0xf5ec010dfef827f5U, 0xfc2b0a0762de1cf4U,
  0x3f164efa37f9f437U, 0x1fef50c37bd4c32U, 0x614dee7a2faadfeU, 0x1818e8f83010d56eU,
  0xdaea2229c5f11101U, 0x3b523a3905c9444fU, 0xe8de1ff90ccdf900U, 0x36d436fb2b01d9d8U,
  0xcdd8db03c526df96U, 0xb02cb8a3fd002cedU, 0x8fdd58f23a1513deU, 0xc8a0279ff5cb2002U,
  0xddbb0e0ae61a1ee2U, 0xf0b6f2ded733c0cdU, 0xf7b3ccf2cfe9faecU, 0x47fb09f8c4a5e5e8U,
  0x9cedba38c51f1dbbU, 0xa333d9812504e7deU, 0xc3b37e1c4d232815U, 0x81ea14aff4fd003dU,
  0x10aeddfbf7f6f7faU, 0xdcc22bea28fc1ddfU, 0xe2a7fddf87f228eeU, 0xec2229f0dedaeee9U,
  0xea20033f0bf22802U, 0x30007165ce1ffbbU, 0xe9f73111fbf727edU, 0xc7dd0fcdefd00360U,
  0xd9e6150a3effd3daU, 0x215eed190ad81618U, 0xe7eb00c51604f7f9U, 0x30dc322ff8acf7ccU,
  0xdffacc30f3222f44U, 0x163e2c1218f4de0aU, 0xcc110fe622e91617U, 0x1de8331109f73eb2U,
  0xdbd218d7e006172dU, 0xef0ed726cc2489faU, 0x24d0cfb0ca212c23U, 0x3bf4da0ad3b6171aU,
  0xa2a5cd2cd6fb4b19U, 0xf0241ab0eb03e6e3U, 0xdfd02b16401f44feU, 0xd2de1debe9cc1e19U,
  0x7d5c3212804f3fdU, 0xd12702e7de1ced87U, 0x7e82bc59fd2082fU, 0xc5f41b1ff5e5c6e1U,
  0xaef8032ac1122ff6U, 0xd3c950aa3cf731e1U, 0x118d701db1429efU, 0x3bf0fcaa18f60fc7U,
  0xf9f007ed15ecffe5U, 0xe949020cdb36c651U, 0xf0d553dbc512394eU, 0xfce30d201af4ed1cU,
  0xc1c10e810f7e5f7U, 0xffad9e4102d22ffU, 0x8ff0c00b5eae41bU, 0x1cd1fce600ddf007U,
  0x1ef9160f0cf709d9U, 0xfb1212fac0f51100U, 0xf90d1c2bfb03021bU, 0xe216edeb0dd8fbfeU,
  0xf712f8211c0b021cU, 0x9e6fbec0ffe1c06U, 0x191631e6b7f7be0cU, 0x3e8f8ebf2faf113U,
  0xf6d8e5de16ecddf1U, 0x160b100db5f1f7f9U, 0x1014f50c150bf21eU, 0x18fafcf501eaf003U,
  0xf7fe18d316fcf405U, 0x1ad5dfff05fa0e0fU, 0xfa0c08e6dae0e112U, 0x13beecfc01f0ea01U,
  0xdf6f7be07f3f300U, 0xfeeff8a2ee02faU, 0xfb1ef60d09f30817U, 0xa0ff2dbf902f707U,
  0x8030cd5001eeee3U, 0x2edba5e7dffaf020U, 0x1518e3068cd8c5e9U, 0xee8caf30b07dc10U,
  0xf2f90c16cc030110U, 0xfcf206eed2dc1aecU, 0xd1618fede12061dU, 0x1121f502e0ebed05U,
  0xff705db05fadd00U, 0xeffeb3f1d1e9ff14U, 0x11f5faed84e4d5e9U, 0xf7d3c9eef0fee603U,
  0xfde3f708f604fcf3U, 0xf109260df1e108dfU, 0x1efc0a09e719fe0eU, 0x1ef4f8ecf3020e0eU,
  0xff020dde0906ff22U, 0xfcf00af0e5d9f51bU, 0xfb0101f2b0f3eaecU, 0xefdcd7fc0ef2bafcU,
  0x8fde5fec1e20afbU, 0x10090df2daee11e1U, 0x111f0af20cd6ef03U, 0x621e7f206f4011aU,
  0xf617fd0301f000ffU, 0x802e1fcfd3000fbU, 0x1cf7190081dd06f8U, 0xde3de0bf40efde6U,
  0xf9ff1201f30ffe18U, 0xf411f500fadf16d4U, 0xddf3070ef5fe0ef7U, 0xf72710fafcf0fe06U,
  0xf60bfc0304fcd612U, 0x12fad517e6000807U, 0xfd020f0d8203cee7U, 0x7c9cd0c0201e2f6U,
  0xdffa0813f3dd161aU, 0x14e9fef7fedd15e2U, 0xe313fe130414fcf9U, 0x18041c00e7e8f00aU,
  0x190c12eefff9d323U, 0x1de9cfec04fc1100U, 0x21822148efb21e6U, 0x10e3d8fb0bfab519U,
  0x6edf313d9d90b1aU, 0xfb0bfc14b3041ceaU, 0x9f0ff061d13eb26U, 0x12eaf217f3fc16feU,
  0xed0ee210fd17feffU, 0xc2eb30eff11cde11U, 0xf4fedc07edc40f12U, 0xef405ea11b8042dU,
  0xf6c7155e1dda12e6U, 0xfa10faf90fe0d1daU, 0xf805fcef000e1210U, 0xe9e1d52603faf421U,
  0x1417fb0f11e8f5f7U, 0xd6c7d72c20090335U, 0xf601d0f617d819ffU, 0xfd15dc24eabdf444U,
  0xef392412fd0f11e0U, 0xee2225c721eaa420U, 0xffe2910f82ffb12U, 0xe2eedd1921230c05U,
  0x2116e008f6e7f7daU, 0x421c20232f8000dU, 0x1f22f607e707f3eaU, 0x2529f8202fe60dd3U,
  0xb1101fbf1eb1608U, 0xe413d5041101030bU, 0x181a091101352bf1U, 0xe1050afce8eb1914U,
  0xf7bb09f72f1d1fd9U, 0xcecf08ad1b000de2U, 0xf2dde4f103ede613U, 0x1ff2f6f017d10828U,
  0xfa024048f50b1ddeU, 0xc20c20ea0ee0dc17U, 0x2edcf714d910e9e6U, 0xd71cd3230817ee17U,
  0xdcdf1f3ff04e7edU, 0xb3020e0a19fd0e22U, 0xf9ffeb07eecbfefaU, 0xfaf2dc1ae9b9e62cU,
  0x2141df30412e1f3U, 0xd00932ce1dc7c0f9U, 0xfcfb121aec24ebf0U, 0xa03ef132e18eaf7U,
  0x290b21f0f1fff917U, 0xe6cc81121306d932U, 0x160fc639ece9f312U, 0xfbcdfc2b33c108ffU,
  0x1172d000bfd01eeU, 0xf1e8160916ec0cf8U, 0x121aede6d32a0530U, 0xf10501051e08eefdU,
  0xd0d606f8f40221beU, 0x15cf06ef23061aedU, 0x1119b4bb06ceef21U, 0xbfb0ccdefeb1505U,
  0x1a020fe208fef4ceU, 0xe7fd05d8fd09ab04U, 0xf71ed3301d1ce9feU, 0xd2e6ab1236071b1dU,
  0xdddefb0dda191ce6U, 0xdbd954f234ec3011U, 0x1909ebcce7ee25f2U, 0xe70130cdc0f80312U,
  0x28071dd81d06efbcU, 0xedfaf3df12ed89edU, 0xf516023e241e22f2U, 0x6ca06032e221330U,
  0x2300e5d2f9f2f6e7U, 0xcbc0cc16ede4ed13U, 0xf60cbb2af4ea160dU, 0x1fff162531ba0ce1U,
  0xf3e5430507cd37cdU, 0x6edfc23f3ffe600U, 0xf01609e329f3fe12U, 0xcd00f5dcf8ec03fbU,
  0x2020ea10da2bcce1U, 0x26d2e6202e19c7bdU, 0x18c3e627c9d4e41bU, 0xcdd3bebccc9d6feU,
  0xcbcf0612e7eed027U, 0xb50ed60e3c02e6e9U, 0x2c0239e8ea152015U, 0x2a01e52cf72c33ccU,
  0xc0cefde40cdee7e2U, 0xc6f517e7f81ad8caU, 0xf5fddd2df9f21fb7U, 0x360cdb18f4dd30bfU,
  0x2ff0ba08ead71f32U, 0xdfa3b7bc01ec1ee4U, 0x2bdfee1f15c1df2dU, 0xa5d71bf7b1fce3bdU,
  0xd3141a1e101a0420U, 0x252ad803e0c622beU, 0xecc51031c315d0e3U, 0xda31d3d4fb2a22bfU,
  0x290bb8d4c0ef2a2eU, 0xb7cc9af3dd171ac0U, 0xf01ff5fa26b2caffU, 0xcf0de9d1fc311711U,
  0xee150a020f14cb0eU, 0xe4d6a5e8cf2d0106U, 0xf2cfbe2a1113fceeU, 0x30e6e9e32300dc07U,
  0x7decc2710d708c5U, 0xc9efc80ad0f3ea16U, 0xf4fecddf120105dbU, 0xd00503c5caff0f21U,
  0x22e80ee512d5a80eU, 0x112403040ed60aafU, 0xcbc905c0d2cbf81bU, 0xd4c7f1d31217d229U,
  0xdfe3c32b09fdd710U, 0x502fcf4fddfd6cfU, 0xd1d6fa03aa24d3f8U, 0x352cd71d04bff708U,
  0x3328c7bcc71fcc16U, 0x1fcd0bdfe22c12f7U, 0xfdab1ee9ebfc3223U, 0xd82cf7f01328d1d0U,
  0xf008dbf30ad112f1U, 0xa0ebf71f36be069fU, 0xada190cc7c714f3U, 0xd0d63ef5d4e0dbc4U,
  0xe4cde7c401f4c9feU, 0xd0fcacb02419b2e0U, 0xf9dcc4ced8e5f21bU, 0xdfc8ce9efec2e1c4U,
  0xc708c7211edf28e8U, 0xb0e6ad0dff3aadddU, 0xbaf40cdfb5a8260cU, 0x8102ceaa3abbfd23U,
  0xe028b80908b2c0e4U, 0xcec3160dc0b730f5U, 0xe3f12ccbe500d136U, 0xcacb0af1c4dcead5U,
  0xf8c7ee1efae9f6f2U, 0xa18f1bcace1bcffaU, 0xe107bcc4f52cdf0fU, 0xc2fb199910fdaca7U,
  0xdcf50c202fef3a36U, 0xc9cd1e2dcebd240cU, 0x2b160a2ad72715d9U, 0xcae3c0ec1ccfc317U,
  0xe8ec1c16c1dccb32U, 0xecf1f2bbe603f0b5U, 0x26c9c624a4d91a30U, 0xef32eff1f708c9a7U,
  0xfc1d1ae8f9de2205U, 0xcdf5e417eff6c0e2U, 0x172611e8fedfeed0U, 0x1afcca010d08ea14U,
  0xf3daf6f3eccdc8e4U, 0x11deed0dd4d8172fU, 0xa1b1c0f25eedbe6U, 0x5ed17f701f319e2U,
  0x162207d217d81900U, 0x3d0ed12906deeed7U, 0x312811d1c4bc19a5U, 0xbfef9ebee081305U,
  0x3cf329ff3c1eb21U, 0x1324d90c00d6154bU, 0x14432807d8d40825U, 0xe1d3cd04d01f060eU,
  0xfe30f10d4dde124aU, 0x1553f8051a342fd2U, 0x19ec331aecdaea04U, 0xe040a622e64d1305U,
  0x20f84f141e0cf70eU, 0xcc2d3aee27fb0b45U, 0x214e1c3a81cfe6ceU, 0xdbee0bd9fc2d0abcU,
  0x1db27de1e0e0e0fU, 0xe8ecd31c09d7c0f3U, 0x240128ec2e13fdc7U, 0x6292c1c1dff1132U,
  0xdbccf3c813fc272fU, 0x18eebb2bfe1ef25aU, 0xecd2d8ea2310db01U, 0x4c2229f0cfd019f0U,
  0x1b2d16b0362a2527U, 0xd5eafd08d7eaa510U, 0xfd1b41fefd1d09b8U, 0xefa6170c18013733U,
  0xd6be22d3031225efU, 0x2f9dc0ad90e4456U, 0xe6ff06fddafcf0caU, 0x1af8cc0cafbcebf8U,
  0xc50fedfa1ae003f7U, 0xde909f310ed07f1U, 0xd4ea111c1b210afdU, 0xb1d7f1011af0f339U,
  0x7d22af8f7140ac7U, 0xdce047ebe8da1a16U, 0xd9e716dfce1ee610U, 0xff1bdce5e5c5e3baU,
  0xc6def5f31af7d8feU, 0xafadea2ae0cef0edU, 0xdfeb08ef2c0125daU, 0xe9e64d0e00cb1ec3U,
  0xeddaf3f52a130417U, 0xeee91af3d029c70dU, 0xe5d7ccdb280a21bdU, 0x25dffa0af018d300U,
  0xf2eff1b9f52694ecU, 0xf4fcb6f9e40ddd08U, 0xe0ef1606043d2dbaU, 0xec22fa5f0c84fffU,
  0xe6c5f1060006fc30U, 0xe9cc1013003df50fU, 0xb2e306aa040c37f3U, 0x1eddfe37f0c8c4feU,
  0xac03cd2df5ed0d0fU, 0xdc180b0303fc26d5U, 0xf5d640111c27fb18U, 0xa035ffc2ea070da6U,
  0x17f2def7eef3d9e0U, 0xd59474e2221522beU, 0xecd629d22e07212dU, 0x46023026ef1aeaf8U,
  0x7d4e4eafb1536ecU, 0x13180109eac7ff32U, 0x30dda7c80f550b1aU, 0xe0ec36ce0ad43604U,
  0xfc0aaef62cf4edU, 0xf8d802011931b0f9U, 0x1a0104f241280af2U, 0xccd89c12f758ee24U,
  0xdc12a9d5e81321ffU, 0xe8100d16f8e4ef05U, 0xf17e6e1d4c9fc1bU, 0xf21feaea041c12d4U,
  0xd60a1bcff7f1460cU, 0xd9f814faf109d720U, 0xa08f33305dbdfU, 0xec2ccbaaec35e724U,
  0x1bdce2d4e80f2ac5U, 0xdc053c05f10bd406U, 0x2818f6dd13d5f6U, 0xc1e6f2bee320c92aU,
  0xf4f91b99301006c1U, 0xeaf81edcede5f5cfU, 0xec3620180bb6fd1eU, 0xe21e0dd9b900cf02U,
  0x4425dfef12e42b27U, 0x3534f4eaf9f00820U, 0x2c2bd7dcc5ee81a9U, 0xf018ed100516be53U,
  0xf93405f1f9db1335U, 0x25ee1cf40fe5130cU, 0x59220ae005dfdbe9U, 0x5adc5dfdc090c2bU,
  0x334912db17f31c25U, 0xfe0deadfed0a1220U, 0x2047d3b69cc4b9aaU, 0x1c26e942fe1ae502U,
  0x1917e0fbd6c93f33U, 0xfbf0ff10e6172df5U, 0xf3fdfa11a8f3faf2U, 0xd00ef7b006e73b36U,
  0x251efdd512f4bafbU, 0x2f3ff17d206fd1bU, 0x131807ddb708f217U, 0xf5f7e21712209917U,
  0x310ee08f4ebff1bU, 0x19db44fd29d60ac0U, 0x1c183012bde42f11U, 0xfd58f2f4d0faf8f8U,
  0x1cfed11701d620efU, 0xdb1d0fee1c00fbfcU, 0x19fe2cf8d4be1bdeU, 0x1d061afa03fc00e3U,
  0x25f8090e16dcde20U, 0x7d9a5fc1fdbfce0U, 0x2ae2ffdcd4dc25fbU, 0xd6dffb34021612f8U,
  0xf41ec81ef3f11e14U, 0x360bf709e808e5d9U, 0xb0ef0dacfa2ceceU, 0x3817df1ee9ebd302U,
  0xc4df9fbf3011b1bU, 0xeb03bd1de5e6e3eaU, 0xbc0c0b0420e61610U, 0x1fcddf50b1f2af2U,
  0x1ef7e6eaf0d20001U, 0xf1f5b715ecf7f206U, 0x90addd8adf4dff2U, 0xbe7eecaf018df0eU,
  0x1c0330dccb2417bfU, 0x1927a10af60c02f9U, 0xeb0f090922f32019U, 0xb2fc0e080a0bebe7U,
  0xefdf0a440cf23110U, 0xc3e6cfe1feff0b05U, 0x103dbf3021ef9ebU, 0xcd1b06f417fc1a30U,
  0x290c062025111118U, 0xef13022d2726f513U, 0xe6e8f324ef03fbe8U, 0xf7da36311413f51cU,
  0xecfade15f3f91b11U, 0xdce6b81600eeef06U, 0xf7e6cdc12d1211cdU, 0xfa0918e3e6c55881U,
  0xf6dc07bb073e27fdU, 0xe6eaedd4ec570a3aU, 0xfae829e303ff1227U, 0x30183af004f0f70bU,
  0xf30cabf934fbe605U, 0xfa34062a170b05e8U, 0x16ecebfb20e8fbdbU, 0xe8ef08e803ed09ffU,
  0xfcf232ee06fef901U, 0xffb0deaea311245U, 0xfbf10adc1f0ee8f0U, 0x2466431fe6f5cdf5U,
  0x8d7fd0204f5d213U, 0xcbadff17f30a0f1cU, 0x2ae08ae904f90ac3U, 0xdb13cd2bf309f9eeU,
  0xafee9ccfc1ff30dU, 0xe404bd0f2e17001dU, 0x12c311013030c04U, 0xf4fe131e0426f911U,
  0x162ceecd1dd6dd57U, 0xf6d5122de4cd2bf1U, 0xb1fb0f11905ebe3U, 0xf8d1def6f9071092U,
  0xea1f2a17b2e11102U, 0xf906ca1a03d5465aU, 0xb8272bf723f2edf7U, 0x26d82aa6092709daU,
  0x2723f7e902c80415U, 0xfdf530360fc00ff9U, 0x150409fadabafdc8U, 0x514f2f9d711ad0eU,
  0xda2d3cdbb9a6f502U, 0xe033af1d8cc1111U, 0xce12e80a0b22f3abU, 0x4adffde9f116fccdU,
  0xbfb05062dd81005U, 0xf0e20c3221bc0efcU, 0x1b18cfc225d9d812U, 0x10fef4f6e3e620c7U,
  0xe0e82dec49c5020bU, 0xa0ca9fec11f012cU, 0xc635c31c052fc8caU, 0x1450f2cbedf1e7eeU,
  0x3f0804da21f4fbe6U, 0xeaef241501cce1dbU, 0x42bffcaee0f08e5U, 0xfd9c3cc7fdd7f71dU,
  0xcc21fedb0eb10cfbU, 0x1441d606d8f61626U, 0xacf7ecf4043006c8U, 0xbf0a2faafcb1180fU,
  0x1e140cc52bda06efU, 0xc52dff2118990de8U, 0x203300dbe6d9fbc7U, 0xf6af22dd0124ee61U,
  0xb09f7bedac7efc5U, 0x3fe3182ba7d51520U, 0xe500c7e9f21befbbU, 0x1ce9c9c8b5d506f6U,
  0xdafae81ee8fdf8c6U, 0xeed50ff11ff9de04U, 0x260ae805dcab0116U, 0xee09ff0af3d2fd2eU,
  0x912f62e3be81a01U, 0xe2da04e22bead812U, 0x6271410dc1705daU, 0xd5c3ce21f3fa0111U,
  0xe4f822050dd7dffaU, 0xf4ddd0ff01f3df32U, 0x1a18ecd3c7bb272eU, 0xd09f50a0afbbf76U,
  0xfe21ef2020fc1e01U, 0xe2ef18efe39fadf6U, 0x170617e5f308f9feU, 0xf4bfc32b2b1eeb1eU,
  0xbf41eebf1f4b3c4U, 0xf5e28f1b24fa2014U, 0x160481d9b3d6191cU, 0xf001f701fddaf33fU,
  0xb1502ef06ef4cf2U, 0xcdff07ccf72bbd2eU, 0x1af910171434f4fcU, 0xefe9ea0d1708eb0bU,
  0x9cd6ea27fa05020dU, 0xfee017fa24fbfce4U, 0x11e3a0e1ead5ce12U, 0xa24e8ddd5b2e114U,
  0x16d842092205120dU, 0x10221ea05bdd2ddU, 0xefe10f508e840U, 0x160c09462513d60aU,
  0xdacd191e0bdee031U, 0xe4af2aee09f11d0fU, 0xfb04c8b8f0e723f7U, 0x26ecf4edf2adb917U,
  0xf5e942162e09d0c5U, 0x95829d8f7f9e5ffU, 0xb01ff003b39fa05U, 0x1cffe33b2b25c9e8U,
  0xfbab05f3f5f8ccd1U, 0x10c2f5e816f7f4efU, 0xe0f497e2ea131f1cU, 0x1af61611d0022c0fU,
  0xeffe1f082a2d17c8U, 0xd3484ad8db08db12U, 0x1adefe053c3e15f2U, 0xf301c931f811cdf5U,
  0xc0360e152207fa5eU, 0xed01eafb0dc45ef3U, 0xf8f9f0140cfab8ebU, 0x3a40c8d503dffdaeU,
  0xf4cd1027cb0d28e4U, 0x730f0f20fae4a15U, 0xf618fe262c2913fcU, 0x2d3d2a0f1924f821U,
  0xbec907fdf90ad932U, 0xeabbfddcfcd003e0U, 0xe909dfed2f082bfbU, 0x26e6fcc4f7cf14f2U,
  0xf9efdb3cf20dd6c6U, 0xe8503af5f9e3fbf0U, 0x3f2dce8331e18efU, 0x1706c717df23c5ddU,
  0xf6e2f3fac00de6a5U, 0xefacdad7c5f7c3fcU, 0xea0c29bb202c13c8U, 0x22d615d21328380bU,
  0x5f5ec0d102302f0U, 0xf6f801fbeff4c635U, 0xedb2b0c7dcee45d6U, 0xe7f5ec3998d8f234U,
  0xe211402defae8fcU, 0xdff6e2ffe1c7131eU, 0xf6ef10e582f6c82fU, 0xe9ff0f1f1f010243U,
  0xe8232fefe22d040aU, 0x6ff0301f0c004fbU, 0x3421e009d61a18faU, 0x17f417c80412f1e8U,
  0xa0bf5ebfd29f8faU, 0xddedec12f9d4101eU, 0xfcfaf5edc4fcc52dU, 0xf9d3ee2404f70113U,
  0xda112af9f2200af3U, 0xcfade0101df0af4U, 0x25f4faf3c8092107U, 0x350d16fcfcf8f9f8U,
  0x1305f40600040e1bU, 0xda0100d6160b02efU, 0xdfdeddf0119de2fU, 0xebf814f4f3f6ee26U,
  0xebf247e9061015deU, 0xf20caee719faf928U, 0xb03070bf7ed07f9U, 0xfd54f2fc0ff9f2e5U,
  0x1b02ec381cef08efU, 0xf4dab30b16e51deaU, 0x1ef546c0a6e7e4fbU, 0xbf91719e42705feU,
  0x1703faee1efe132aU, 0xec2dbd050fede7f6U, 0xc6e7f109fef8eae9U, 0x36041bf5fee10dfaU,
  0xec21dd0607fa3230U, 0xe0c4dcfc2e02e601U, 0xf0233cefb04f515U, 0x1f010ef803dc0fdaU,
  0xf7e4d1f32bf5131bU, 0xa18b1fbe20fe934U, 0xc5eeda0dc4d9dcf3U, 0x1e121f51bd415ffU,
  0xf805ec280414370fU, 0xfff1d52433f907dcU, 0x130a24c43121e6ffU, 0x21fe0102f3f01ce4U,
  0xeb1412dd41f2eeb8U, 0xe332b0f7e92fef56U, 0xdae607f725d209d5U, 0xe71617f43efb1304U,
  0xf3e6e1091c060c03U, 0x32b0e5df26ed04daU, 0x91c169406022807U, 0x4c0803f6f7f40719U,
  0x6f0ebea11fef8e1U, 0x130e2beaa704b01eU, 0xcc04e6033c01ebdaU, 0xfe1e33c0cda15f3U,
  0xd1e7d915fb320e04U, 0x18c422d52d1501feU, 0xfa03ca892c022c21U, 0x15262fede0c3130bU,
  0x2307d7e115fde6ebU, 0xec2ee308df27a50eU, 0xe513040426fe1dffU, 0xcde4c41023e41514U,
  0xd5f5cf11eff735d1U, 0xfcff1fe62e1b1c14U, 0x1060781150d3c18U, 0xdf1e24bccae3373aU,
  0x306c4f50200f4a4U, 0x1f208d6f701071bU, 0x17eff5fbe7df2cf2U, 0x9abb1dce1df1e60cU,
  0x19162dee21110748U, 0xfce2ec1926e83420U, 0xaeffa09cbdabdebU, 0x4f6ce6c05fbf816U,
  0xdff54b19233ae50dU, 0x2fefe0505012108U, 0xc5070829c60bd7e9U, 0xf1f22142f1d0acfU,
  0x20e13da0ef6e613U, 0xfced9dfaf4f0cb00U, 0xf3f60706bbf5bfe7U, 0x1ac6f1470220f7bcU,
  0xfaf21cf6273204fbU, 0xec081cf21ed30c0dU, 0xdfebe5efeef0eff2U, 0x141313fb02ed03ceU,
  0xffe6f8b3eb24d6efU, 0x2ebe609c216bd09U, 0xf4f20105fef200c9U, 0x27f1f9e90cf72af0U,
  0xee502e9462f150eU, 0xd14ef01f2f70216U, 0xecf2e1e713ff00ffU, 0xe620e009f4d9f514U,
  0xd800c34103ec351cU, 0xdd71aff202625f4U, 0x7f02fe1e9f10421U, 0x1e0ee125cf1efdb9U,
